e </w>
s </w>
t h
i n
d </w>
a n
o n
t </w>
th e</w>
e r
e n
y </w>
t i
o r
, </w>
r e
a l
g </w>
an d</w>
a r
o f
o </w>
of </w>
in g</w>
on </w>
e d</w>
s t
. </w>
o u
a </w>
in </w>
t o</w>
e s</w>
c h
a ti
al </w>
o m
i t
a t
er </w>
i c
i l
e l
f or
i s
o p
en t</w>
an </w>
e c
p r
i s</w>
a t</w>
" </w>
o l
a s</w>
d e
a c
s i
t r
e s
u n
ati on</w>
u r
e m
a s
a d
l </w>
l y</w>
th </w>
v e</w>
a i
c on
- </w>
t s</w>
en </w>
c om
s u
st r
l e</w>
th at</w>
c e</w>
ch in
s h
o v
c i
o w
m ent</w>
ati on
i g
l e
for </w>
t er
i r
ou n
' s</w>
w i
e x
re s
v el
p l
u s
w h
p e
i m
b e
d i
a g
k </w>
a b
ti on</w>
a m
i t</w>
h a
ic </w>
wi th</w>
u l
ch </w>
p ar
o s
f r
n e
p or
chin a</w>
th e
it y</w>
l d</w>
pr o
p </w>
l i
d u
w or
n </w>
m a
p er
ar </w>
b y</w>
a p
d ing</w>
c oun
w </w>
ar y</w>
at e</w>
ou r
vel op
de velop
t e
m e
h as</w>
il l</w>
th is</w>
e v
ig h
ti c
or </w>
m </w>
on g</w>
en t
ar e</w>
w ill</w>
es e</w>
b u
ation s</w>
ha ve</w>
t y</w>
i es</w>
com m
b e</w>
er s</w>
u s</w>
ec on
t w
q u
ai d</w>
ou ld</w>
om </w>
on s</w>
pe op
g r
a f
n o
peop le</w>
ov er
t ed</w>
p re
al l</w>
t a
coun tr
it s</w>
e st
s e
er e</w>
fr om</w>
t ing</w>
y e
s o</w>
econ om
s aid</w>
i z
m il
th er</w>
ation al</w>
si d
ou t</w>
a y</w>
an g
w e</w>
in ter
s p
d s</w>
f ic
o g
en ts</w>
p ol
ti es</w>
0 </w>
t ur
e f
no t</w>
du c
develop ment</w>
n ational</w>
w as</w>
i </w>
h e</w>
p u
an ce</w>
ir </w>
o c
t er</w>
the ir</w>
m in
ad e</w>
o o
chin ese</w>
ne w</w>
our </w>
m an
b l
en ce</w>
i st
re g
v i
ai r
r i
re c
sh ould</w>
h u
ou s</w>
p o
an g</w>
s o
on e</w>
un d
p res
g h
k e</w>
op er
mil it
c l
econom ic</w>
al so</w>
re l
m ar
c or
par ty</w>
ol og
m or
milit ary</w>
i d
at ed</w>
k ing</w>
i on</w>
s t</w>
em </w>
an t</w>
wor k</w>
c o
it ed</w>
tw o</w>
f </w>
over n
ti m
; </w>
g overn
as t</w>
at es</w>
u c
pr ov
l a
al ly</w>
countr ies</w>
so ci
us t</w>
for m
g u
u p</w>
ow </w>
the y</w>
ti ons</w>
k e
ar s</w>
ou gh
a in
c es</w>
em ent</w>
t en
is h
t ai
ic al</w>
om e</w>
v is
in g
por t
es s</w>
b r
s e</w>
en g
ye ar</w>
: </w>
tai w
u </w>
ar d</w>
f i
k s</w>
em b
taiw an</w>
i ch</w>
c re
wh ich</w>
mor e</w>
d is
c r
m o
tic al</w>
a y
ac e</w>
t u
s y
f ir
govern ment</w>
un ited</w>
i al</w>
s ec
re s</w>
o ther</w>
b il
t o
g re
por t</w>
h e
c an</w>
ar m
e ig
in v
es s
wor ld</w>
c </w>
j i
s er
v er
si on</w>
h is</w>
st ates</w>
str uc
en ti
il </w>
es t</w>
st ate</w>
e en</w>
) </w>
ol l
ab le</w>
be tw
betw een</w>
com p
en d
w e
1 9
b as
( </w>
st an
m an</w>
pol i
er al</w>
h igh
sy st
s ci
le ad
be en</w>
a u
comm it
ch n
oper ation</w>
b o
ch ang
te chn
sh i
el y</w>
is su
g e</w>
countr y</w>
a ch
s ti
u d
f er
en ter
ti ve</w>
eig n</w>
t e</w>
d ay</w>
im port
ov er</w>
con t
in e</w>
ag e</w>
inter national</w>
th re
for eign</w>
in ci
us e</w>
tur e</w>
o b
commit te
u m
w ere</w>
m ust</w>
me e
a d</w>
li on</w>
f ac
tim e</w>
e g
poli tical</w>
or y</w>
pr is
b ec
or d
s in
pre sid
en tr
ough </w>
a re
f in
of fic
iz ation</w>
p os
rel ations</w>
bu t</w>
i ous</w>
or g
is t</w>
e p
af ter</w>
as s
d ec
techn olog
c er
0 0</w>
it u
g en
h el
bu il
r a
el </w>
pr om
committe e</w>
d ed</w>
ye ars</w>
f u
n ed</w>
fir st</w>
an s</w>
for m</w>
ow n</w>
al l
e ar
pol ic
p ec
i ties</w>
igh t</w>
v ic
ac ti
on ly</w>
co operation</w>
s el
f l
ur e</w>
f e
ou s
il e</w>
thre e</w>
ol d</w>
is m</w>
n ing</w>
enter pris
su p
str eng
ma in
syst em</w>
s ome</w>
in to</w>
pu bl
c entr
at ing</w>
m ade</w>
presid ent</w>
' </w>
w el
m ents</w>
shi p</w>
c ul
import ant</w>
z h
ac cor
ji ang</w>
sp ec
po in
th r
tr ade</w>
s ol
a v
le vel
pro duc
oo d</w>
al s</w>
con tr
de m
er n</w>
l and</w>
u e</w>
en ing</w>
m emb
th ere</w>
oun d</w>
en se</w>
s itu
c ap
5 </w>
ha d</w>
mar ke
w s</w>
c ar
per i
c ur
ab il
i de
e duc
j o
i an</w>
org an
su ch</w>
y ing</w>
em s</w>
u p
high </w>
j ec
f ec
gre at</w>
p ow
wh o</w>
i str
os e</w>
un i
centr al</w>
und er
vel y</w>
an c
ati ve</w>
ad v
ur ing</w>
ab l
19 9
de f
am e</w>
ay s</w>
per s
pl an
th an</w>
g e
in cre
su l
mee ting</w>
f ul
prom o
incre as
min istr
an d
1 </w>
v ing</w>
qu i
in du
per c
ma ke</w>
indu str
ef for
f ic</w>
par t
al ity</w>
v es</w>
g res
si g
cont in
en d</w>
j ap
on g
situ ation</w>
ab out</w>
m is
enterpris es</w>
en c
l ar
2 </w>
di f
w ould</w>
th ese</w>
perc ent</w>
si a</w>
n o</w>
os t</w>
min ist
at t
wh en</w>
sec ur
t ly</w>
ol e</w>
man y</w>
re form</w>
streng th
il l
a in</w>
or s</w>
con struc
ev er</w>
abil ity</w>
for ces</w>
econom y</w>
thr ough</w>
b le</w>
la w</w>
igh ts</w>
technolog y</w>
w ar</w>
und er</w>
wel l</w>
vi e
f ur
abl ish
d uring</w>
est ablish
th er
educ ation</w>
buil ding</w>
an y</w>
secur ity</w>
marke t</w>
s ed</w>
re d</w>
un </w>
accor ding</w>
ous ly</w>
po si
i ev
soci al</w>
p on
sh </w>
sid e</w>
air </w>
d r
3 </w>
l ong</w>
8 </w>
v ar
sci enti
im pl
ord er</w>
re por
on al</w>
reg ion</w>
h ist
de part
at eg
c a
c ent
bo th</w>
pro bl
stan ding</w>
s ou
ma j
le g
hu a</w>
g o
l ast</w>
x in
publ ic</w>
def ense</w>
b an
r ights</w>
construc tion</w>
di rec
pr inci
p h
ain ing</w>
w ay</w>
st ud
n or
m on
fur ther</w>
t al
am </w>
vis it</w>
effor ts</w>
sin ce</w>
ing s</w>
b er</w>
inv est
wh ile</w>
it e</w>
j ing</w>
tic </w>
ter s</w>
t re
li </w>
str ateg
c ad
ta in</w>
en g</w>
wi th
ou </w>
r o
form ation</w>
el ec
ev en</w>
w ar
res pon
to day</w>
d el
e d
p le</w>
th em</w>
6 </w>
4 </w>
var ious</w>
soci al
ou t
pro c
est s</w>
pr op
tr aining</w>
ent ly</w>
re pres
g i
or e
olog ical</w>
i f</w>
0 00</w>
7 </w>
g ood</w>
arm y</w>
an n
l l</w>
an s
xin hua</w>
ta in
issu e</w>
be i
gres s</w>
k ed</w>
hel d</w>
gen eral</w>
s c
r us
hu man</w>
at ten
ex chang
b el
level </w>
ai </w>
s pe
ci al</w>
v en
jo in
sti ll</w>
ch ar
bei jing</w>
n um
maj or</w>
is e</w>
pow er</w>
sid es</w>
ta ke</w>
bil lion</w>
tic s</w>
a ch</w>
tur al</w>
sup port</w>
de p
m at
si ve</w>
em ents</w>
i a</w>
polic y</w>
ac c
u g
minist er</w>
p c</w>
d o</w>
cad res</w>
vic e</w>
man ag
ol </w>
fr i
in cl
develop ing</w>
h ong</w>
a o</w>
ac k</w>
cur r
g l
for e</w>
n ow</w>
h ow
u res</w>
pe ace</w>
mo d
enc y</w>
comm un
m ost</w>
at er</w>
v ed</w>
su m
gr ou
mil lion</w>
j u
how ever</w>
iz ed</w>
for ce</w>
memb ers</w>
el l
su b
ef fec
re sul
c c
s ur
u m</w>
bec ome</w>
o d</w>
ent al</w>
a k
z em
ati c</w>
th or
in formation</w>
zem in</w>
i ons</w>
ag ain
again st</w>
us ed</w>
9 </w>
tr o
ev er
l oc
w est
lar ge</w>
k ong</w>
con di
con cer
p p
n ec
pl o
k ore
ach iev
be ing</w>
car r
sti tu
ur y</w>
ex p
re ad
i d</w>
ad ministr
sci ence</w>
su cc
os s</w>
u an</w>
ma y</w>
ver y</w>
sp ir
st e
m u
ex pres
em ent
pers on
west ern</w>
scienti fic</w>
op e</w>
le ar</w>
tr ans
x </w>
inter ests</w>
si ble</w>
d o
gr ow
x i
sou th</w>
pro jec
e ur
probl ems</w>
a st
jap an</w>
fri end
w ays</w>
oo k</w>
fi el
f air
me as
pro t
an ti
v ir
res ear
pu t</w>
res ol
w ard</w>
ag re
wh at</w>
sec re
s m
s ame</w>
com e</w>
f un
i e
num ber</w>
cent ury</w>
se t</w>
qu ality</w>
is ion</w>
re port</w>
si an</w>
ide ological</w>
sel f</w>
l ine</w>
lead ing</w>
we ap
iz e</w>
impl ement
fer ence</w>
d e</w>
reg ul
are as</w>
p s</w>
dis c
s ch
h ere</w>
t as
pr of
con duc
me di
si st
p ur
p ast</w>
f oll
contin u
comp le
im prov
ac t</w>
invest ment</w>
it al</w>
op ening</w>
issu es</w>
mis s
th ose</w>
as e</w>
ter r
t ary</w>
n el</w>
peri od</w>
poin ted</w>
fi ve</w>
nec ess
s econ
er ship</w>
en h
id e</w>
am er
to t
b i
coun c
d ic
su per
fu l</w>
en s
pr acti
, 000</w>
manag ement</w>
fin an
com b
str i
prot ec
resear ch</w>
c our
person nel</w>
in di
fair s</w>
am ong</w>
a use</w>
tu al</w>
t ow
im </w>
af fairs</w>
dep end
d ent</w>
k in
a q
au thor
ic an</w>
re le
ci v
finan cial</w>
t or</w>
fic ation</w>
bu sh</w>
as h
sig n
d oll
ne ws</w>
e ty</w>
ful ly</w>
strength en</w>
par t</w>
en vir
fu ture</w>
envir on
st ability</w>
bec ause</w>
anc ed</w>
t on</w>
grow th</w>
il y</w>
condi tions</w>
princi ple</w>
re qui
r ic
necess ary</w>
li f
ch air
? </w>
counc il</w>
pres ent</w>
emb er</w>
meas ures</w>
por ts</w>
str ic
u ding</w>
at eral</w>
c u
stud y</w>
i ti
promo te</w>
un its</w>
ti ci
develop </w>
v o
ar ly</w>
th in
dif fer
re al
ir aq
pl an</w>
ow ing</w>
b us
v ol
e an</w>
l in
c ity</w>
ma king</w>
organ iz
in depend
st res
ass es</w>
tro op
secon d</w>
k n
ish </w>
wh ole</w>
lead ers</w>
practi ce</w>
join t</w>
vis ion</w>
leg al</w>
strateg ic</w>
bas ic</w>
c oll
plan e</w>
incl uding</w>
e ther</w>
an ese</w>
e qui
s en
r ole</w>
chair man</w>
n ation</w>
er ation</w>
e ach</w>
stan d
s af
increas e</w>
l o
spec ial</w>
grou p</w>
our ces</w>
doll ars</w>
af t</w>
vi ties</w>
cr im
secre tary</w>
f re
m ac
hist ory</w>
com r
n ov
ke y</w>
m s</w>
comm is
acti vities</w>
ai t</w>
rus sia</w>
fi ed</w>
expres sed</w>
bus in
d own</w>
y uan</w>
tot al</w>
de pu
c all
prov in
m asses</w>
ex er
social ist</w>
th ir
pro ve</w>
b ri
es sion</w>
v e
ta k
disc us
r e</w>
n at
h and
al th
st at
industr y</w>
n ations</w>
posi tion</w>
1 0</w>
memb er</w>
in stitu
level s</w>
u tion</w>
ge t</w>
id ed</w>
i als</w>
as s</w>
t ar
f oun
com pe
oc r
con ference</w>
h old</w>
re ach
depart ment</w>
bil ateral</w>
si bil
ric ul
sp ace</w>
str ong</w>
ef </w>
l es</w>
ag ricul
dif fic
diffic ul
dem ocr
f al
for ward</w>
f und
es ti
2 0
al e</w>
v er</w>
ough t</w>
j ust</w>
st and</w>
contin ue</w>
be fore</w>
h ol
sin o</w>
gu ar
n a
b en
me ans</w>
be g
v al
res pec
read y</w>
st ar
depart ments</w>
st s</w>
en ed</w>
inci dent</w>
an ts</w>
troop s</w>
a il
jap anese</w>
produc tion</w>
an t
tal ks</w>
thir d</w>
in te
arm ed</w>
em p
ma in</w>
h ow</w>
weap ons</w>
pro gress</w>
inte gr
s ev
re a
c ould</w>
ur al</w>
hist or
cap ital</w>
curr ent</w>
en ces</w>
a sia</w>
develop ed</w>
contr ol</w>
anti </w>
m en</w>
l ed</w>
g a
n er</w>
n uc
al ways</w>
er ing</w>
ver s
ie ve</w>
ex am
c pc</w>
i fic
p ment</w>
char ac
del eg
d om
lif e</w>
l ing</w>
comm on</w>
w ang</w>
organ ization</w>
str ait</w>
nuc lear</w>
adv anced</w>
im prove</w>
re as
equi pment</w>
un g
spir it</w>
loc al</w>
se e
ex c
h en
str ug
ad op
ati s
h ai</w>
u t
th ing</w>
ar r
struc ture</w>
m ul
pr im
ex peri
gu ang
us ing</w>
exer c
under standing</w>
commis sion</w>
is ra
pl ay</w>
ag ency</w>
lead ership</w>
er n
carr y</w>
j un
si ons</w>
fund am
proc ess</w>
atten tion</w>
vie w</w>
over all</w>
syst ems</w>
ministr y</w>
ay ing</w>
spe e
me th
rec ent</w>
pr os
ag es</w>
in ten
gl ob
uni fication</w>
an other</w>
la un
fr on
br o
pos sible</w>
ar ds</w>
pl om
di plom
s es</w>
2 0</w>
v ant</w>
th em
a fr
produc ts</w>
ci r
environ ment</w>
hel p</w>
tr ad
r u
compe ti
g er
ever y</w>
bas is</w>
differ ent</w>
soci ety</w>
rele vant</w>
independ ence</w>
the ory</w>
pe ac
with out</w>
ther e
op </w>
tici p
tim es</w>
sp o
par ticip
ti vely</w>
administr ation</w>
ne t
com pre
tur n</w>
h er
ist s</w>
ban k</w>
ac k
un ity</w>
repres ents</w>
i fic</w>
m ed</w>
sel ves</w>
kore a</w>
e i
u l</w>
technolog ical</w>
a pr
iraq </w>
se a</w>
repres ent
compre hen
ful l</w>
con gress</w>
respon sibil
r ate</w>
le d
reg i
tic ul
organiz ations</w>
apr il</w>
ch en</w>
con c
th us</w>
comp any</w>
at ely</w>
t ter</w>
li ke</w>
c ol
r up
se t
r ight</w>
cor rec
civ il
ord in
requi re
provin ce</w>
nor th</w>
cer tain</w>
author ities</w>
% </w>
z ed</w>
offic e</w>
thin king</w>
offic ers</w>
ch ed</w>
con sid
op port
u ary</w>
p al
res ources</w>
comb at</w>
import ance</w>
gr ad
ef ul</w>
e ds</w>
zh ou</w>
t ors</w>
e p</w>
resul ts</w>
f our</w>
r ap
prop os
fundam ental</w>
friend ly</w>
e ast</w>
a z
h op
di d</w>
tr u
w ater</w>
pr i
poin t</w>
er g
b att
i ally</w>
call ed</w>
r ul
polic ies</w>
is tics</w>
cul tural</w>
pr ac
comr ade</w>
tre m
pl ace</w>
c ed</w>
pre m
promo ting</w>
cl os
l an
ex t</w>
as es</w>
al ready</w>
mat er
m ov
are a</w>
or ity</w>
plo y
y p
exchang e</w>
ex pl
ta king</w>
ne ed</w>
inv esti
i ef</w>
le ar
investi g
e t</w>
achiev ements</w>
p ing</w>
mod ern
ther land</w>
re unification</w>
f am
d ly</w>
g o</w>
are d</w>
ic a</w>
terr it
m un
st ed</w>
y ou</w>
main tain
wh ere</w>
h ar
mo therland</w>
i bu
ex per
p op
reach ed</w>
projec ts</w>
ac coun
offic ial</w>
strength ening</w>
ser ious</w>
la ws</w>
s l
fal ung
f igh
falung ong</w>
ex pec
charac ter
mar ch</w>
sh ang
sc ale</w>
p at
pop ul
busin ess</w>
er ed</w>
ag ain</w>
cul ture</w>
sch o
qu es
kn ow
mac ao</w>
pos e</w>
eur op
cr aft</w>
vi ol
pro gr
reg ions</w>
industr ial</w>
ca use</w>
l ess</w>
h ard</w>
succ ess
ish ed</w>
cr oss</w>
c am
n pc</w>
hu </w>
pl es</w>
id d
gi ve</w>
ter m</w>
streng th</w>
sign ific
he ad</w>
ear ly</w>
se e</w>
histor ical</w>
regul ations</w>
p ed</w>
foll owing</w>
fiel d</w>
bas ed</w>
shang hai</w>
arm s</w>
agre ement</w>
f ar</w>
ch an
s ession</w>
ac tion</w>
tak en</w>
form s</w>
europ ean</w>
de ep
i ding</w>
foun d
com pl
air craft</w>
n ess</w>
dom es
exchang es</w>
em on
th en</w>
social ism</w>
in nov
xi a
tas k</w>
sh ow
f oc
g le</w>
of f</w>
depu ty</w>
car ri
mu tual</w>
establish ed</w>
sum m
sev eral</w>
repor ter</w>
jun e</w>
enti al</w>
ic e</w>
it ing</w>
amer ican</w>
par ticul
fic i
t en</w>
sh or
strug gle</w>
he ad
d pr
ow ned</w>
ro ad</w>
dpr k</w>
fiel ds</w>
h o
tow ard</w>
deleg ation</w>
r oo
chang e</w>
h ope</w>
super vision</w>
modern ization</w>
mun ic
h er</w>
ti on
with in</w>
offic ials</w>
b </w>
en s</w>
ar ri
domes tic</w>
know led
miss ile</w>
contr ibu
wor k
h im</w>
al ization</w>
ex ten
in ning</w>
high er</w>
q i
s al
h al
1 0
there fore</w>
or ial</w>
rus sian</w>
op en</w>
me chan
dec ision</w>
in fl
ste p</w>
elec tr
ob jec
diplom atic</w>
w to</w>
prov ide</w>
ap pl
vie ws</w>
projec t</w>
impl ement</w>
comp an
j ud
f are</w>
ag o</w>
mee t</w>
bi g</w>
s over
d ra
sh e</w>
om e
k ill
responsibil ity</w>
sm all</w>
implement ation</w>
al ities</w>
adv ant
sig ned</w>
kin d</w>
ti be
inv ol
enh ance</w>
t es</w>
g est</w>
them selves</w>
p ac
strateg y</w>
ap prov
p ly</w>
eig n
effec tive</w>
democr atic</w>
i ed</w>
n ext</w>
regi onal</w>
c le
ag ed</w>
found ation</w>
op in
ac y</w>
f ace</w>
agricul tural</w>
wh ether</w>
iz ing</w>
spee ch</w>
si vely</w>
kore an</w>
peac eful</w>
ju ly</w>
il i
ens ure</w>
fe w</w>
t ook</w>
m idd
grad u
midd le</w>
st age</w>
g ed</w>
n al</w>
concer ned</w>
mar x
i er</w>
av y</w>
fac t</w>
resul t</w>
ing ly</w>
es pec
m ental</w>
chang es</w>
buil d</w>
n ation
establish </w>
espec ially</w>
cent er</w>
exp an
$ </w>
con f
ben ef
o il</w>
th s</w>
ser vice</w>
3 0</w>
friend ship</w>
d ays</w>
administr ative</w>
ep t</w>
ne eds</w>
w est</w>
pl ac
v ig
se par
re vol
l at
carr ying</w>
ent ed</w>
saf e
protec tion</w>
p ass
character istics</w>
br ing</w>
ac a
pre par
in iti
meth o
in al</w>
ain ed</w>
aca dem
j ob
bu rea
ch es</w>
wor king</w>
pal est
ic s</w>
be tter</w>
ar tic
t or
poin ts</w>
h ou
cl ose</w>
main land</w>
in es</w>
probl em</w>
knowled ge</w>
cor rup
d ance</w>
main tain</w>
cour se</w>
a sian</w>
dis ci
ad ded</w>
v en</w>
do es</w>
require ments</w>
n am
hal f</w>
sol di
se as</w>
roo ts</w>
tas ks</w>
prim e</w>
in t
t yp
ad di
improv ing</w>
ab o
olog y</w>
mis sion</w>
en em
comm and</w>
qu ar
ann oun
b er
oper ations</w>
enterpris e</w>
comm er
uni vers
princi ples</w>
rec ei
5 0</w>
mon e
e t
t el
polic e</w>
c ases</w>
mod ern</w>
de man
am oun
ri o
pre v
direc tor</w>
op ing</w>
is ed</w>
inter est</w>
carri ed</w>
20 0
ju st
d oc
c ri
[ </w>
on ce</w>
ex trem
e u</w>
d ong</w>
sover eign
pr oper
dem and</w>
comprehen sive</w>
m it
l im
d eng</w>
] </w>
zh ang</w>
sovereign ty</w>
net work</w>
guar an
de ter
z e</w>
establish ment</w>
proc e
prem ier</w>
metho ds</w>
q ian</w>
correc t</w>
au g
st af
mul ti
guaran te
b ur
tre at
rel ation
reg ar
coll ec
alth ough</w>
in spec
cl in
disci pl
co oper
increas ed</w>
al y
reg ard</w>
ch ing</w>
accor dance</w>
conduc t</w>
exerc ise</w>
work ers</w>
th ings</w>
s ad
rel ated</w>
ploy ment</w>
under stand</w>
n s</w>
di es</w>
su f
h and</w>
att ack</w>
industr ies</w>
form er</w>
r y</w>
ap pe
progr am</w>
issu ed</w>
con sul
al ong</w>
s ing</w>
par ties</w>
ne ver</w>
ar ound</w>
s ense</w>
posi tive</w>
du e</w>
staf f</w>
p en
oc k</w>
he ar
w r
over seas</w>
indi a</w>
c lear</w>
l ab
re al</w>
is ing</w>
gr ound</w>
b an</w>
mo bil
is tic</w>
grou ps</w>
al th</w>
un ion</w>
r an
incl ud
c an
gi ven</w>
fr ance</w>
clin ton</w>
p i
ex ist
bel iev
so on</w>
fun ds</w>
elec tion</w>
bu d
th ers</w>
ex port</w>
burea u</w>
a th</w>
xia oping</w>
ti v
n on</w>
in ation</w>
al i
ac ks</w>
te ch</w>
p t
ac ts</w>
nat ure</w>
ic ally</w>
cre ate</w>
anc ing</w>
it er
fac ts</w>
pac ific</w>
ch il
at ta
rec ently</w>
re public</w>
out side</w>
acti vely</w>
figh ting</w>
fun c
enem y</w>
ch ief</w>
str o
compan ies</w>
r ural</w>
me an
f y</w>
au t
ach ieve</w>
t ation</w>
go ing</w>
d ri
w ill
stat ement</w>
st ance</w>
in dic
d y</w>
ser vic
du ce</w>
zh i</w>
hol ding</w>
ad es</w>
t ting</w>
f av
an aly
y oun
b or
stres sed</w>
p ay</w>
f t</w>
ever y
competi tion</w>
com pu
co ordin
199 9</w>
tu de</w>
t ory</w>
pec ts</w>
as soci
st or
expl or
u al</w>
respon sible</w>
au str
artic le</w>
it al
gu id
gre at
di al
b ack</w>
stric t</w>
glob al</w>
t og
spo k
lead er</w>
ch all
chall eng
a ve</w>
medi a</w>
i ously</w>
i or</w>
enti re</w>
we e
le ad</w>
commun ity</w>
t our
tibe t</w>
summ it</w>
ne go
nego ti
infl u
ay ed</w>
2 000</w>
sh ow</w>
li es</w>
ist an</w>
t old</w>
im p
addi tion</w>
war fare</w>
ai med</w>
e qu
acc el
a k</w>
tog ether</w>
soldi ers</w>
h ong
expec ted</w>
c c</w>
w ash
ven tion</w>
se pt
sept ember</w>
s ing
h i
ati ves</w>
x i</w>
relation ship</w>
form ul
form ed</w>
effor t</w>
d er</w>
abo ve</w>
ol s</w>
eur ope</w>
re con
ut ely</w>
r ound</w>
increas ing</w>
deter min
cr is
we i</w>
ques tion</w>
val ue</w>
pros per
mat ter</w>
org ans</w>
o thers</w>
do ing</w>
cor e</w>
sup por
st y
exper ts</w>
at s</w>
ye t</w>
s aying</w>
experi ence</w>
n in
li ving</w>
u es</w>
pur su
pp cc</w>
c ppcc</w>
fe d
d en
rel ig
h on
fir m
1 5</w>
de stro
spok es
mu ch</w>
repor ts</w>
na is
d a
recon nais
for c
conduc ted</w>
1 st</w>
no ted</w>
ic ation</w>
cor por
achiev ed</w>
it ation</w>
fac il
ci ties</w>
c ase</w>
job </w>
isra el</w>
dec ided</w>
0 ,000</w>
s atis
del i
con stitu
sal es</w>
s or
pre c
he alth
b om
d en</w>
shi ps</w>
me t</w>
com ing</w>
pres s</w>
ing ton</w>
in d
e as
accel er
s at
popul ation</w>
nor m
direc t</w>
te am</w>
aug ust</w>
difficul t</w>
f ail
si x</w>
j an
gre ater</w>
corrup tion</w>
nin th</w>
adop ted</w>
thr ough
stand ards</w>
y ang</w>
st u
en ds</w>
conf id
comple te</w>
1 1</w>
vi du
un it</w>
ser ies</w>
indi vidu
palest in
hand ling</w>
en jo
prov inci
vig or
provinci al</w>
difficul ties</w>
p eng</w>
hou se</w>
s ure</w>
res er
marx ism</w>
m om
br ought</w>
b al
ti tude</w>
implement ing</w>
wash ington</w>
ser iously</w>
on e
ex t
p ul
ge ts</w>
isra el
an ds</w>
it self</w>
ven ess</w>
techn ical</w>
prac tic
gen er
servic es</w>
is l
tr end</w>
institu tions</w>
i al
emon y</w>
ef fici
opport unity</w>
bel ieve</w>
ati vely</w>
lar gest</w>
l ight</w>
b ack
p il
gu ard</w>
ha pp
rap id</w>
r en
pur pose</w>
l ow
jan uary</w>
ha ving</w>
afr ica</w>
signific ance</w>
ex ports</w>
tru th</w>
terr or
ser ve</w>
int ell
set t
el s</w>
announ ced</w>
st ing</w>
il es</w>
health y</w>
ger many</w>
ca used</w>
1 2</w>
h </w>
cris is</w>
st ep
spir itu
s ay</w>
rul es</w>
fron t</w>
1 .
si zed</w>
at tr
af fec
w om
univers ity</w>
spe ed</w>
w ent</w>
re duc
main ly</w>
mone y</w>
man ner</w>
de b
wi de</w>
re ly</w>
or ies</w>
ne w
curr ently</w>
ac tive</w>
vi ous</w>
of f
fav or
amoun t</w>
ac r
repor ters</w>
re mar
plan es</w>
ter ms</w>
p al</w>
ac tions</w>
in fr
f el
e th
cul t</w>
19 8
p er</w>
extrem ely</w>
o t</w>
govern ments</w>
b re
stud ents</w>
civ il</w>
gradu ally</w>
u te</w>
spiritu al</w>
sh all</w>
im medi
h ome</w>
crim inal</w>
c o</w>
stat us</w>
l ook</w>
commun ist</w>
ow ed</w>
miss iles</w>
me d
hong zhi</w>
enc our
sty le</w>
pl ans</w>
m ing</w>
af ter
ad ic
mon ths</w>
beg inning</w>
b order</w>
g ing</w>
en erg
em ployment</w>
acr oss</w>
maintain ing</w>
t op
in d</w>
char ge</w>
spokes man</w>
ann ual</w>
a ver
th ern</w>
nat ural</w>
s ance</w>
en ding</w>
e ded</w>
w in</w>
succ ess</w>
respec t</w>
in de
par li
israel i</w>
arr ang
stric tly</w>
mo ve</w>
l ow</w>
firm ly</w>
vie w
stri ve</w>
sel ec
mon th</w>
lab or</w>
fl ic
concer n</w>
cap ability</w>
st able</w>
ic ations</w>
munic i
hop es</w>
er y</w>
committe es</w>
att emp
territ orial</w>
ne t</w>
investig ation</w>
p ak
go al</w>
show s</w>
r is
marke ts</w>
1 00</w>
s w
foc us</w>
discipl ine</w>
m os
civil ization</w>
l oo
h os
b ar
reconnais sance</w>
con flic
to ber</w>
t an
st atis
q ing</w>
oc tober</w>
innov ation</w>
guang dong</w>
will ing</w>
trad iti
inter nal</w>
youn g</w>
poli tics</w>
improv ement</w>
f our
just ment</w>
i f
see king</w>
ser v
p ai
minist ers</w>
cle arly</w>
pos ed</w>
imp act</w>
form ing</w>
m y</w>
is ions</w>
ep ing</w>
cul tiv
c y</w>
as sist
kin ds</w>
guarante e</w>
de gre
w ars</w>
ri ch</w>
deman ds</w>
bri ef
atten ded</w>
as ed</w>
re turn</w>
effec tively</w>
am s</w>
bas e</w>
b on
arri ved</w>
agricul ture</w>
qu ic
oo ds</w>
ong er</w>
cour t</w>
tur ned</w>
tu ally</w>
traditi onal</w>
opport un
fe br
febr uary</w>
exp and</w>
su g
plan ning</w>
comm and
v al</w>
r ad
l og
afr ican</w>
qu e</w>
ke ep</w>
emp ha
ti al</w>
reas on</w>
objec tive</w>
con sum
ab ly</w>
sh en
re ality</w>
high ly</w>
c old</w>
associ ation</w>
z hu</w>
pre ci
in tro
hu i</w>
vol um
sat ell
repor ted</w>
commer cial</w>
bas sad
am bassad
a w
energ y</w>
coll ision</w>
mechan ism</w>
f ound</w>
a king</w>
wor ks</w>
ti sh</w>
re sid
or i
opportun ities</w>
ac tual</w>
tr i
s ome
cl u
ch em
m er
ic es</w>
depu ties</w>
ti ce</w>
gr as
four th</w>
dial og
see k</w>
palestin ian</w>
he alth</w>
fac ing</w>
b est</w>
1 5
tur ing</w>
te ach
sig n</w>
re qu
re f
con sist
mater ial</w>
li u</w>
ish ing</w>
bri tish</w>
tr a
ti onal</w>
pai g
cam paig
star ted</w>
s a
re main
glob alization</w>
cer emony</w>
scho ols</w>
n i
chang ed</w>
batt le</w>
re forms</w>
in ed</w>
d one</w>
cap ac
br it
! </w>
pl ayed</w>
es si
vis its</w>
s ent</w>
compu ter</w>
c ame</w>
ti veness</w>
s ar</w>
prov ided</w>
le ft</w>
d ate</w>
re fl
refl ec
on es</w>
dra w
dec ember</w>
contr adic
se ts</w>
ne igh
d am
continu ously</w>
us es</w>
st ock</w>
prosper ity</w>
favor able</w>
y m
d ou
con scienti
through out</w>
s qu
b oo
w at
ra ise</w>
mor ning</w>
ex ec
pri v
nov ember</w>
gr ass
ag ing</w>
sol ve</w>
real ize</w>
prac tical</w>
ma st
direc tly</w>
influ ence</w>
de al</w>
laun ched</w>
for um</w>
fir m</w>
fin d</w>
austr al
prev ent</w>
capac ity</w>
bom b
r ang
pers on</w>
at titude</w>
scho ol</w>
particul ar</w>
conc ept</w>
y ed</w>
fr en
f air</w>
an ci
ac ci
ab sol
volum e</w>
tu res</w>
particul arly</w>
as ked</w>
stand ard</w>
s pl
re pe
n avy</w>
inspec tion</w>
cr u
clos ely</w>
bo ard</w>
oc c
dem on
shor t</w>
continu ed</w>
th ought</w>
ne arly</w>
ex plo
w on</w>
re ach</w>
is es</w>
f ig
demon str
de ep</w>
199 8</w>
brit ain</w>
z one</w>
tar gets</w>
li b
il legal</w>
ful f
bec om
sol id
regar ding</w>
ir e</w>
av o
un g</w>
re li
produc tive</w>
m al
le t</w>
b rea
ar ing</w>
fam ily</w>
er ous</w>
enter ed</w>
electr on
busin ess
w u</w>
tain ed</w>
super vis
statis tics</w>
bro ad</w>
benef it</w>
rio ts</w>
vigor ously</w>
su st
safe guar
represent atives</w>
negoti ations</w>
f ood</w>
t est</w>
stres ses</w>
f le
b ook</w>
wh ite</w>
tic ally</w>
sm oo
si mil
p aid</w>
he g
gen eration</w>
ap er</w>
ambassad or</w>
t ely</w>
sur ve
inten si
2 5</w>
revol ution</w>
pre vious</w>
f ight</w>
t able</w>
kill ed</w>
great ly</w>
er ful</w>
ar ti
sup ply</w>
saf ety</w>
j us
inv itation</w>
ga ve</w>
wom en</w>
th an
per fec
o s</w>
is land</w>
hand le</w>
e ight</w>
spec ific</w>
exam ple</w>
comp at
bo dy</w>
pos t</w>
norm al</w>
no on</w>
na to</w>
mit ted</w>
gu iding</w>
direc tion</w>
peop les</w>
leg isl
guid ance</w>
concer ning</w>
att acks</w>
2 1st</w>
f a
aver age</w>
advant ages</w>
ti li
adv ance</w>
star t</w>
sen ior</w>
po or</w>
grass roots</w>
success ful</w>
prop ri
m ass</w>
join tly</w>
d ang
ta x</w>
p un
n an
199 7</w>
su s</w>
mean while</w>
j in</w>
ban ks</w>
b a</w>
se ar
rec or
in c
dr en</w>
contribu tions</w>
chil dren</w>
z e
to o</w>
k es</w>
fre e</w>
comple tely</w>
ab road</w>
sug g
prof essi
on om
fren ch</w>
coun ter
compat riots</w>
ph ili
ke eping</w>
cir cl
1 3</w>
or ig
di ed</w>
stan tly</w>
opin ions</w>
campaig n</w>
as pects</w>
air port</w>
thin k</w>
success fully</w>
st re
pr ice</w>
min d</w>
amer ica</w>
t elec
s pre
s k
agre ed</w>
adop t</w>
phili pp
a head</w>
4 0</w>
vis ited</w>
ti z
on ed</w>
in sur
fir e</w>
ch o
beg an</w>
t op</w>
s ite</w>
exist ing</w>
di vision</w>
wee k</w>
ur g
resol ve</w>
resol utely</w>
n ership</w>
gen cy</w>
de ath</w>
co ast
pres sure</w>
m oun
zh en</w>
thre at</w>
se en</w>
pass ed</w>
opin ion</w>
environ mental</w>
st ation</w>
et c
rel atively</w>
recei ved</w>
pow erful</w>
our ce</w>
etc .</w>
de ta
6 0</w>
qu ite</w>
pe as
invol ved</w>
g er</w>
facil ities</w>
con fron
territ ory</w>
su peri
mater ials</w>
low er</w>
in come</w>
hu man
confid ence</w>
qi chen</w>
publ ished</w>
protec t</w>
po ten
immedi ately</w>
buil t</w>
relig ious</w>
k il
in sul
gh t</w>
chem ical</w>
ac ted</w>
s ound</w>
in e
effici ency</w>
organ ized</w>
l ater</w>
el im
contr oll
ap pro
th u
out standing</w>
fin ance</w>
con stantly</w>
br az
1 6</w>
r un
iraq i</w>
improv ed</w>
conscienti ously</w>
vi a</w>
stud ying</w>
ti ves</w>
gr ap
el l</w>
comr ades</w>
ar ab
a way</w>
ti an</w>
stri bu
di stribu
crim es</w>
cir c
wor ds</w>
up on</w>
ti an
st op</w>
pers onal</w>
proper ly</w>
k im</w>
in an</w>
cooper ative</w>
aut onom
ap propri
u tive</w>
pr ices</w>
pak istan</w>
k y
integr ity</w>
treat y</w>
su d
ra ised</w>
educ ational</w>
conduc ting</w>
con centr
ac king</w>
t ac
individu al</w>
hol ds</w>
fin al</w>
establish ing</w>
d ents</w>
after noon</w>
ad ding</w>
show ed</w>
ra ther</w>
it es</w>
e ast
degre e</w>
de vo
ch i</w>
t le</w>
resol ution</w>
hop ed</w>
at ory</w>
y ong
v ast</w>
rang e</w>
op ened</w>
fic ial</w>
enh ancing</w>
approv ed</w>
w ant</w>
vic tory</w>
ur ban</w>
t ings</w>
id ly</w>
i ans</w>
dri ve</w>
ang u
am es</w>
2 .
oc cur
ig ence</w>
challeng es</w>
telec om
telecom munic
ru le</w>
om s</w>
u tili
sti pul
institu te</w>
infr a
discus s</w>
rec og
fi re
experi ences</w>
sh a
l os
de fin
cre w</w>
wh y</w>
sub jec
sc ri
maintain ed</w>
consul t
cl ass</w>
b ed</w>
s even</w>
quic k
br an
19 7
tr y</w>
oper ational</w>
k now</w>
end ed</w>
en forc
cu st
ai m</w>
safeguar ding</w>
p tion</w>
insur ance</w>
ide ology</w>
ci tiz
s ources</w>
r ise</w>
propos ed</w>
fre qu
1 8</w>
1 4</w>
med ical</w>
l en
ji an</w>
he avy</w>
circl es</w>
t em
ro k</w>
loc alities</w>
lo ans</w>
entr y</w>
a th
lin ks</w>
intro duc
fer ed</w>
ac compl
ste ad
sol id</w>
proce du
procedu res</w>
over ed</w>
b ig
v ill
rap idly</w>
pen insul
cre ated</w>
ch e
bre ak
sy m
pr a
occ up
coun ty</w>
c al
bud get</w>
approv al</w>
ag gres
a x
pil ot</w>
p ace</w>
meth od</w>
ma o</w>
kn own</w>
f ying</w>
de al
th ous
abil ities</w>
the ore
sh u
presid ential</w>
le e</w>
e ase</w>
ans w
s un</w>
l aid</w>
d al
1 7</w>
z ing</w>
out put</w>
condi tion</w>
command er</w>
acc ep
respec tively</w>
ol ym
laun ch</w>
u g</w>
s ports</w>
elim in
con solid
2 4</w>
up hold</w>
typ e</w>
st ly</w>
s em
olym p
n av
democr acy</w>
an y
safe guard</w>
pl a</w>
ger man</w>
foll ow</w>
ev il</w>
batt le
advant age</w>
y ou
ver si
quar ters</w>
peninsul a</w>
em er
adv oc
port ation</w>
man u
exam ination</w>
thu si
re ally</w>
pu sh</w>
jus tice</w>
im m
en thusi
a ment</w>
1 3
im port</w>
func tions</w>
exc ell
ess ing</w>
mee tings</w>
electron ic</w>
cont acts</w>
comp ared</w>
af p</w>
trans portation</w>
struc tural</w>
sec tor</w>
pro cur
la w
grap h
fun d</w>
for th</w>
believ ed</w>
rul ing</w>
ol e
dr ug</w>
dis pu
sh ar
medi um</w>
enthusi as
ear li
cont ent</w>
ben e
ve h
prof ound</w>
procur at
priv ate</w>
manu fac
li ves</w>
is on</w>
gr ass</w>
es tim
accoun t</w>
jud ic
fi f
d ig
comprehen sively</w>
prov iding</w>
our s</w>
l d
intell igence</w>
in ste
ap preci
2 1</w>
y our</w>
v </w>
tar get</w>
ques tions</w>
me ters</w>
initi ative</w>
su </w>
posi tions</w>
f arm
ep tion</w>
t ang</w>
shen zhen</w>
revol u
indic ated</w>
implement ed</w>
commun ications</w>
ac ting</w>
tr ue</w>
ing ing</w>
peas ants</w>
par ts</w>
inter net</w>
increas ingly</w>
heg emon
p t</w>
ide as</w>
ic ans</w>
199 5</w>
h ous
est ed</w>
k u
gi ving</w>
satis fac
qu ali
p ir
expan ding</w>
di st
dep th</w>
theore tical</w>
r un</w>
provin ces</w>
lear n</w>
g oods</w>
bec ame</w>
spe aking</w>
per sist
n ame</w>
east ern</w>
sc en
propos al</w>
m ight</w>
infra structure</w>
discus sion</w>
the ast</w>
stan ces</w>
s ays</w>
maj ority</w>
l ess
dialog ue</w>
be h
tr ust</w>
sp ite</w>
simil ar</w>
si m
loo king</w>
jo in</w>
inste ad</w>
gu ide</w>
f er</w>
circ um
cer tain
bro ad
y or
veh ic
ow s</w>
fac tors</w>
ch ann
1 4
y u
st ated</w>
re in
b ul
yor k</w>
y s</w>
strength ened</w>
pl en
coast al</w>
al ism</w>
1 -
sear ch</w>
revolu tion
p le
m ag
is i
beh ind</w>
vie t
tel ev
stu dies</w>
satell ite</w>
ide a</w>
ha inan</w>
effec t</w>
ear th</w>
differ ences</w>
can ad
ass emb
z ha
w inning</w>
spec ial
ri ver</w>
reas on
prepar ations</w>
contradic tions</w>
air space</w>
oun ds</w>
h im
ed ly</w>
z </w>
telecommunic ations</w>
judic ial</w>
2 2</w>
si mul
l u</w>
indi an</w>
dr aft</w>
th ough</w>
situ ations</w>
n ight</w>
exerc ises</w>
exchang ed</w>
dra w</w>
bene ficial</w>
y ug
ta x
l ement</w>
includ e</w>
guang zhou</w>
eth n
poten tial</w>
fac ed</w>
er a</w>
ann i
particip ate</w>
benef its</w>
an im
yug os
yugos la
y s
wel come</w>
sub mar
s we
gr ain</w>
exc e
el ements</w>
ec </w>
cu t</w>
cu ba</w>
ci es</w>
attemp t</w>
and a</w>
g es</w>
enforc ement</w>
becom ing</w>
as sets</w>
tow ards</w>
fire power</w>
com es</w>
assist ance</w>
0 s</w>
mom ent</w>
promo tion</w>
parli ament</w>
gras p</w>
g ain</w>
f ine</w>
em plo
199 6</w>
sh are</w>
sec tors</w>
l u
in struc
autonom ous</w>
assemb ly</w>
ar di
ad justment</w>
treat ment</w>
spre ad</w>
ch am
ash </w>
promo ted</w>
n '
n' t</w>
lib eration</w>
j in
fre ed
d at
av ing</w>
tur ning</w>
recog n
prop ag
hu ge</w>
equ al</w>
earli er</w>
du ties</w>
con sci
comple ted</w>
brief ed</w>
bel ief</w>
te dly</w>
new sp
l onger</w>
a por
s on</w>
represent ative</w>
li ve</w>
l oss</w>
is c
for ced</w>
at ors</w>
t ext
s ov
re ven
mon it
ie t</w>
e y
commun ists</w>
tru ly</w>
recor d</w>
pec t</w>
lear ned</w>
eng ine
the ories</w>
produc t</w>
fe el
discus sed</w>
al ed</w>
sov iet</w>
per form
him self</w>
exec utive</w>
ed ul
author ity</w>
a war
10 th</w>
telev ision</w>
s of
proper ty</w>
neigh bor
mor e
g ames</w>
2 6</w>
w in
v ity</w>
um ents</w>
squ are</w>
sch edul
require ment</w>
l in</w>
independ ent</w>
grow ing</w>
ethn ic</w>
resid ents</w>
regul ar</w>
r ain
constitu tion</w>
b ill</w>
suppor ting</w>
strug gl
sen sus</w>
plac es</w>
gr and</w>
ar ily</w>
z ed
h ands</w>
con sensus</w>
ch eng</w>
typ es</w>
star ting</w>
prim ary</w>
pow ers</w>
op tim
br inging</w>
bal ance</w>
1 ,
w ish</w>
reser ve</w>
rele ased</w>
more over</w>
fed eration</w>
ev ent</w>
du ty</w>
all ow</w>
sing apor
res c
op position</w>
e u
e ding</w>
ch ec
arrang ements</w>
agre ements</w>
ac cur
revolution ary</w>
er r
com par
3 .
2 7</w>
vers ary</w>
ti le</w>
sh i</w>
pos ing</w>
j our
freed om</w>
fed eral</w>
fe at
f il
b ang
ast er</w>
ar ian</w>
8 0</w>
s ource</w>
pur ch
plan ned</w>
oc ca
empha sized</w>
em erg
cad re</w>
acceler ate</w>
ac tually</w>
trad i
t in</w>
deli ver
cont ing
t un
signific ant</w>
remar ks</w>
h arm
gu o</w>
g one</w>
ex ist</w>
en sive</w>
certain ly</w>
b ers</w>
tra vel
munici pal</w>
man kind</w>
lin es</w>
lim ited</w>
l ack</w>
im ports</w>
fir med</w>
2 3</w>
sh ou
schedul ed</w>
real izing</w>
plac ed</w>
p over
pover ty</w>
op ped</w>
h ours</w>
fl ight</w>
f oo
c all</w>
atten d</w>
ar du
we b
tr an
los ses</w>
is ms</w>
bon ds</w>
zed ong</w>
y u</w>
war ning</w>
uni que</w>
resc ue</w>
re struc
perform ance</w>
m y
li k
l angu
head s</w>
el ess</w>
di </w>
austral ia</w>
atten ding</w>
trem end
suf fici
s is</w>
re main</w>
integr ation</w>
h und
cust oms</w>
con vic
avo id</w>
re sum
re duce</w>
kil ome
id es</w>
emb ass
embass y</w>
con vention</w>
circum stances</w>
c are</w>
anni versary</w>
sou thern</w>
s pr
pow ell</w>
pol l
ma ment</w>
hos p
f o
citiz ens</w>
ch uan</w>
vis iting</w>
ur ged</w>
technolog ies</w>
pl us</w>
pl at
ga p</w>
ar mament</w>
wr it
se qu
run ning</w>
quar ter</w>
pr c</w>
p an
integr ated</w>
gu ests</w>
ge tting</w>
di strict</w>
con ven
al li
tour ism</w>
sh own</w>
n or</w>
li st
hi bi
ent er</w>
cre ating</w>
be ha
amer icans</w>
2 8</w>
tal k</w>
t an</w>
propos als</w>
pat ter
hu ang</w>
h an</w>
ess ed</w>
ent ation</w>
19 </w>
weap on
val ues</w>
ten g</w>
requi red</w>
reach ing</w>
pri ority</w>
g as</w>
cri tici
con v
c are
aut om
y an</w>
wor ked</w>
tal ent</w>
stres s</w>
per man
f all
exten sive</w>
em ph
we ak</w>
singapor e</w>
rad i
of ten</w>
le tter</w>
le ast</w>
it able</w>
deep ly</w>
conflic ts</w>
ch i
boo ks</w>
bas ically</w>
ph en
om en
m us
lan ds</w>
g ent
fin ally</w>
de spite</w>
ch a
arab </w>
weapon ry</w>
v ess
te sts</w>
t a</w>
set ting</w>
ra ising</w>
h it</w>
enjo y</w>
uni fied</w>
protec ting</w>
phen omen
ne g
eng aged</w>
coordin ation</w>
consid eration</w>
s anc
ga ther
distribu tion</w>
dec lar
da ily</w>
cor respon
beha vi
acci dent</w>
5 00</w>
tremend ous</w>
po sts</w>
l it
foun ding</w>
excell ent</w>
ens uring</w>
appl ication</w>
ser ving</w>
pat rio
oun ded</w>
lik ely</w>
in a</w>
cap able</w>
battle field</w>
tr ain</w>
repe at
nation alities</w>
ic ated</w>
en able</w>
effec tiveness</w>
c el
analy sis</w>
ac ked</w>
u ally</w>
quali fied</w>
p ic
lear ning</w>
fif th</w>
fail ure</w>
expan sion</w>
con nec
su prem
lo t</w>
it ors</w>
emer gency</w>
dec isions</w>
d res
chang ing</w>
y a</w>
v it
every thing</w>
comm o
c ab
am a</w>
wor th</w>
un ti
repeat edly</w>
quick ly</w>
lat est</w>
enc ed</w>
con gres
comb ined</w>
ad here</w>
restruc turing</w>
pro duce</w>
m i
corpor ation</w>
ardu ous</w>
ter nal</w>
sc ope</w>
mov ement</w>
ind one
fe el</w>
clos ed</w>
a vi
str ong
y i</w>
u ment</w>
u gu
publ ic
pre dic
ph ere</w>
pers ons</w>
ne ar</w>
le ave</w>
head quarters</w>
g ul
determin ed</w>
consid er
civil ian</w>
b i</w>
tr ou
thre at
stand ardi
our selves</w>
occur red</w>
mast er</w>
invest ments</w>
ent ing</w>
enh anced</w>
deb t</w>
superi ority</w>
fr u
at mos
an ces</w>
z ation</w>
stri ke</w>
practic es</w>
acc ession</w>
a de
1 8
tre as
thor ough
sust ained</w>
reas ons</w>
m ist
cl aimed</w>
ch ile</w>
b ir
b ad</w>
anc ement</w>
u k
suprem e</w>
succ es
s cor
mar k</w>
im age</w>
de struc
7 0</w>
invest ors</w>
ide als</w>
gul f</w>
dal ai</w>
collec tive</w>
be sides</w>
at or</w>
tri p</w>
terror ist</w>
pu tin</w>
olymp ic</w>
k o
crim e</w>
al most</w>
wr ong</w>
st ay</w>
st ation
sa w</w>
s ac
ra il
n ers</w>
explor e</w>
econom ies</w>
deliver ed</w>
con cre
tr af
suppor ted</w>
pos es</w>
perman ent</w>
lat in</w>
doc uments</w>
dat a</w>
conting ent</w>
th ail
thail and</w>
smoo th</w>
ordin ary</w>
braz il</w>
res t</w>
re stric
re iter
ji ang
ev id
than ks</w>
pros pects</w>
pr in
ph ys
mom ent
h an
a ke</w>
view ed</w>
tim ate</w>
t own</w>
re fu
ploy ed</w>
nor thern</w>
no thing</w>
l l
kilome ters</w>
inde x</w>
am e
aggres sion</w>
achiev ing</w>
199 4</w>
sing le</w>
regi ment</w>
lit tle</w>
histor ic</w>
g un
ess ential</w>
enter ing</w>
compl icated</w>
cir cul
b all
ar m</w>
ar gent
accoun ting</w>
academ y</w>
unti l</w>
t ons</w>
proc essing</w>
mor al</w>
deep ening</w>
ain s</w>
wi f
sup pl
sugg es
sett lement</w>
prof ess
prec ed
legisl ative</w>
fel t</w>
appropri ate</w>
academ ic</w>
w an
spo ke</w>
mov ing</w>
il ies</w>
govern ing</w>
fam ilies</w>
commer ce</w>
cap ital
be aring</w>
ar ies</w>
2 -
w al
responsibil ities</w>
rec ti
re ve
pu sh
enti oned</w>
encour age</w>
brea k</w>
believ es</w>
ati c
wh ose</w>
respon se</w>
reason able</w>
professi onal</w>
ous ness</w>
fig ures</w>
est er
atmos phere</w>
step s</w>
plen ary</w>
philipp ines</w>
ov o</w>
laun ching</w>
ext ent</w>
exist ence</w>
declar ation</w>
cooper ate</w>
b ol
6 .
0 th</w>
tak es</w>
re p
perfec t</w>
n am</w>
miss ing</w>
ky o</w>
i i</w>
discus sions</w>
big gest</w>
ow ers</w>
m a</w>
k os
in ev
in ary</w>
ex ternal</w>
weap on</w>
sh an</w>
sch ol
ord ers</w>
log istics</w>
l ost</w>
f isc
f all</w>
es day</w>
de scri
b id</w>
sig ning</w>
r ow</w>
r ates</w>
qu o
ob serv
mechan isms</w>
inter view</w>
human it
g ar
fisc al</w>
en abl
d om</w>
concre te</w>
y i
w it
st ood</w>
pursu e</w>
pp ed</w>
in side</w>
il ed</w>
fulf ill
em anci
emanci p
ec ological</w>
confron tation</w>
canad a</w>
can di
all owed</w>
ud ed</w>
sou theast</w>
part nership</w>
num bers</w>
moment um</w>
marx ist</w>
l ate</w>
kos ovo</w>
id enti
15 th</w>
y un
tian jin</w>
suffici ent</w>
sub stan
requi res</w>
hibi tion</w>
exp end
emb o
ear ne
cab in
y ester
yester day</w>
w ise</w>
vehic les</w>
top ic</w>
t our</w>
ne eded</w>
mov ed</w>
en ess</w>
as ean</w>
ad her
acc ept</w>
yugosla via</w>
urg ent</w>
pres er
peac e
inter c
fu jian</w>
engine ering</w>
en ly</w>
correc tly</w>
conc ep
c ost</w>
bas es</w>
2 00</w>
u e
tr ying</w>
qu anti
m it</w>
ish es</w>
e quality</w>
cle an</w>
accoun ts</w>
we ak
teach ing</w>
ori entation</w>
n on
meas ure</w>
consum ption</w>
ci ve</w>
c as
bo dies</w>
sur vi
some thing</w>
pre vention</w>
pl aying</w>
nav al</w>
invest ed</w>
f u</w>
er e
earne stly</w>
col le
vill age</w>
re publ
r ational</w>
p ath</w>
neg ative</w>
mar ked</w>
ma kes</w>
f ast</w>
ev ening</w>
destro yed</w>
au ti
y ers</w>
se ize</w>
sanc tions</w>
op h
d y
um ul
t in
str a
sol ution</w>
langu age</w>
di t</w>
develop ments</w>
cel e
al u
absol ute</w>
199 3</w>
z he
tran si
th ly</w>
struggl es</w>
sem in
progr ams</w>
pos s
leg i
in form
il s</w>
fri ends</w>
en cies</w>
cabin et</w>
bl ood</w>
ad ap
academ ies</w>
absol utely</w>
2 9</w>
vit ality</w>
ti s
sm ug
r ati
pu tting</w>
patter n</w>
or ing</w>
m r
ll ery</w>
lan ding</w>
invol ving</w>
ex tr
d am</w>
x ed</w>
vi ously</w>
ste el</w>
ran ks</w>
c at
affec ted</w>
up holding</w>
s kill
remain s</w>
por ary</w>
po st
de fic
200 1</w>
zha o</w>
you th</w>
re sist
r ose</w>
prop er</w>
fail ed</w>
x u</w>
w en
viet nam</w>
trans formation</w>
prof its</w>
ig r
ess ence</w>
continu ous</w>
business es</w>
arti llery</w>
ac qu
web site</w>
w en</w>
w ants</w>
troop </w>
smug gl
prov isions</w>
ho t
high est</w>
conflic t</w>
b ian</w>
atta ch</w>
as sum
6 th</w>
5 .
3 00</w>
1 7
tow n
station ed</w>
resol ved</w>
pre p
p aper</w>
over come</w>
me dic
gr ade</w>
enthusias m</w>
deep en</w>
appro ach</w>
acc umul
s end</w>
pro gres
particip ation</w>
nam ely</w>
multi </w>
manag ing</w>
er ial</w>
coun ter</w>
consist ently</w>
br ig
zhe jiang</w>
thorough ly</w>
t om
on ing</w>
mal ay
gu ided</w>
con du
chann els</w>
b ound</w>
avi ation</w>
as pect</w>
an tly</w>
ver se</w>
sibil ity</w>
parli am
lin k</w>
l ist</w>
includ ed</w>
in ing</w>
har d
gener ally</w>
enter s</w>
ec e</w>
dang erous</w>
cont ents</w>
con clu
ca using</w>
behavi or</w>
tr ied</w>
strong ly</w>
spr ing</w>
ro om</w>
p aying</w>
over y</w>
ma chin
humanit arian</w>
her e
h y
h i</w>
fer ing</w>
de fe
cr iter
condu cive</w>
commit ted</w>
4 .
resol ving</w>
propag anda</w>
expres s</w>
ei ther</w>
cap abilities</w>
c eas
af gh
ad dres
uk rain
por ted</w>
mobil e</w>
m ent
h all</w>
gr ow</w>
go als</w>
d p</w>
cele br
br ight</w>
ban ner</w>
ai ms</w>
ag ue</w>
t led</w>
sh eng</w>
reiter ated</w>
l igh
gr at
formul ated</w>
dis ease</w>
d re
con cl
af </w>
terror ism</w>
st an</w>
sp ending</w>
si chuan</w>
it ely</w>
intell ec
ev ents</w>
dou ble</w>
comple x</w>
charac ter</w>
challeng e</w>
199 2</w>
ze al
versi ties</w>
there by</w>
s ent
re str
qi ao</w>
profess or</w>
objec tives</w>
ju ven
bran ch</w>
awar eness</w>
an ia</w>
ad ing</w>
wif e</w>
we alth</w>
uni versities</w>
re vis
particip ating</w>
min ds</w>
k en</w>
ig nor
ho t</w>
ev alu
emplo ye
dom in
cri tic
ch ang</w>
t ack
sin cer
sev ere</w>
ob st
o bl
m id</w>
hear t</w>
guid el
en ough</w>
dec isi
ch ong
c ow</w>
anci ent</w>
vic tim
text book</w>
spl it
s ever
res ist</w>
op pose</w>
newsp aper</w>
j i</w>
20 th</w>
z u
su spec
r ing</w>
produc ed</w>
organ ize</w>
mod el</w>
m e</w>
ital y</w>
inde ed</w>
empha si
deal ing</w>
consid er</w>
call s</w>
atta ched</w>
9 .
sugges tions</w>
pi on
ji an
inci dents</w>
great est</w>
fac tor</w>
concep ts</w>
x ing</w>
reduc ed</w>
re view</w>
palest ine</w>
obl ig
n ine</w>
m ong
li sted</w>
de si
crim in
ad vis
tot ally</w>
succes sively</w>
spee ches</w>
sol ving</w>
oun dly</w>
num erous</w>
mat ters</w>
m entioned</w>
ir an</w>
il li
elec tions</w>
wel fare</w>
to kyo</w>
sh ap
regar ded</w>
ide al</w>
happ y</w>
ex hibition</w>
every one</w>
0 .
ud e</w>
tain ing</w>
st ant</w>
re turned</w>
r ace</w>
oper ating</w>
h ai
fulf ill</w>
estim ated</w>
doc ument</w>
disc overed</w>
av es</w>
wi d
t ex
shor t
reven ue</w>
re stor
radi o</w>
organiz ational</w>
m as
f esti
destruc tion</w>
z eng</w>
vis itors</w>
val u
ten ance</w>
read justment</w>
out look</w>
j un</w>
h om
d ow
con sequ
business men</w>
bomb ing</w>
ar i
xin jiang</w>
prof it</w>
pris on
per s</w>
mo del
hosp ital</w>
dou b
bri d
a u</w>
z ones</w>
ser ved</w>
repres ent</w>
prof oundly</w>
princi pal</w>
on d
emph as
emphas is</w>
em or
cru cial</w>
cre dit</w>
con serv
al one</w>
affec t</w>
a part</w>
3 1</w>
war m</w>
var ie
them e</w>
skill s</w>
real ized</w>
or e</w>
m ex
inter ference</w>
ain t</w>
ur ugu
trad ing</w>
top ics</w>
th eless</w>
t ou
sol ved</w>
sel l</w>
reg im
re juven
re fer
ph ase</w>
particip ants</w>
intensi fy</w>
ex clu
consult ations</w>
competi tiveness</w>
c op
ag e
writ ten</w>
sub mitted</w>
str onger</w>
sp on
net works</w>
main tenance</w>
innov ations</w>
fam ous</w>
elimin ate</w>
b in</w>
un preced
tibe tan</w>
teach ers</w>
sup ports</w>
ol i
ji ax
ish ment</w>
es sions</w>
chong qing</w>
c up</w>
al lies</w>
2 3
wor ld
w ishes</w>
surve ill
reg ist
r am
ph o
n an</w>
h am
fr ame
frame work</w>
for ec
c ast</w>
b it</w>
satis fied</w>
real istic</w>
pol and</w>
is ely</w>
initi al</w>
fig ure</w>
doll ar</w>
determin ation</w>
de ad</w>
colle ge</w>
back ward</w>
am en</w>
v ent
mone tary</w>
l ay</w>
jour n
in ess</w>
h us
ens es</w>
dis pat
be half</w>
atta ches</w>
ar re
acti vity</w>
0 -
wh ere
sw it
prop or
p ati
li ber
h or
govern or</w>
go es</w>
ge o
g dp</w>
facil it
devo te</w>
de ployment</w>
bl oc
ap ec</w>
zh ong
y on
un able</w>
surveill ance</w>
sci ences</w>
rel ying</w>
new ly</w>
mong ol
ev ent
dispu tes</w>
controll ed</w>
cont act</w>
comm an
bo di
adv ancing</w>
submar ine</w>
scen e</w>
ris ks</w>
pp ing</w>
pers ist</w>
p ain
mar i
k az
continu ally</w>
con dem
cam bodi
atic ally</w>
ar ization</w>
al ized</w>
wat ers</w>
viol ation</w>
viol ated</w>
supervis ors</w>
suf fered</w>
stra its</w>
ran king</w>
per spec
hel ping</w>
elec ted</w>
d ings</w>
2 7
succ e
sol em
mos cow</w>
m ir
inv ited</w>
hous ing</w>
festi val</w>
de sign
comp on
a o
t on
sen ate</w>
popul ar</w>
p ay
obst ac
moun tain</w>
ke pt</w>
job s</w>
inv est</w>
exten ded</w>
eng age</w>
d on
cho ice</w>
ar t</w>
ad s</w>
ut es</w>
thous ands</w>
thous and</w>
ta o</w>
t ations</w>
surve y</w>
prec isely</w>
ori ented</w>
govern mental</w>
dec ades</w>
controll ing</w>
b ag
ac compan
1 ,000</w>
vo te</w>
tr ial</w>
s ong</w>
r om
prov ed</w>
practi tion
ou se</w>
occa sions</w>
me an</w>
di stance</w>
conclu sion</w>
comp ens
a ther</w>
wor d</w>
te sting</w>
scienti sts</w>
r oc
prom in
ma y
gr oss</w>
for e
fl o
c ze
appreci ation</w>
ap olog
alli ance</w>
un employment</w>
u tions</w>
secur ities</w>
q ing
professi on
practic ing</w>
p led
legisl ation</w>
join ed</w>
jiax uan</w>
indone sia</w>
hou se
feel ings</w>
f eng</w>
draw n</w>
acceler ating</w>
2 5
victim s</w>
trans port</w>
tr ends</w>
spl it</w>
sp ac
r </w>
j e
inter im</w>
im pe
head ed</w>
smoo thly</w>
legi timate</w>
k m</w>
grat ul
con gratul
comp os
bur den</w>
appe ared</w>
zeal and</w>
xi ang</w>
v ers</w>
t ol
sur face</w>
rec overy</w>
per form</w>
model s</w>
gre e
ef s</w>
c y
b ao</w>
at ure</w>
199 0</w>
x im
re ti
ow nership</w>
o ts</w>
l iter
hand led</w>
g ained</w>
dis aster</w>
deb ts</w>
consul tation</w>
c ar</w>
bro ke</w>
ap pra
travel </w>
tr ack</w>
stead y</w>
shu i</w>
sh en</w>
separ ati
prep ared</w>
op posing</w>
ne ver
l of
ji e</w>
it ems</w>
in stance</w>
hund red</w>
foc used</w>
ey es</w>
defic it</w>
b at
b all</w>
austral ian</w>
appl ied</w>
accep ted</w>
vess els</w>
r d</w>
orig inal</w>
mu tually</w>
h ost</w>
func tion</w>
feat ures</w>
exper im
contribu te</w>
clos er</w>
c enters</w>
be auti
ukrain e</w>
tradi tion</w>
subjec t</w>
schol ars</w>
qu es</w>
procurat orial</w>
ov </w>
expan ded</w>
eg yp
d a</w>
bo t
b it
unpreced ented</w>
s mo
rele ase</w>
q in
ne i
min utes</w>
manufac turing</w>
join ing</w>
individu als</w>
har m</w>
frequ ent</w>
e igh
deman ded</w>
comman ding</w>
ap ology</w>
vo tes</w>
up grad
under tak
u su
tur key</w>
tis m</w>
s tic
real ization</w>
p sy
never theless</w>
nan jing</w>
mis sions</w>
m d</w>
lof ty</w>
her o
hegemon ism</w>
h ood</w>
commun ication</w>
as pir
ar ity</w>
all oc
0 0,000</w>
ver sion</w>
undertak ings</w>
trans fer</w>
tim ely</w>
st oc
sk y</w>
reduc ing</w>
prom ise</w>
harm on
fi xed</w>
decisi ve</w>
de pos
cham pion
tur ns</w>
tain s</w>
smuggl ing</w>
sh owing</w>
sever ely</w>
reg re
pl ant</w>
persist ently</w>
particip ated</w>
op enly</w>
nei ther</w>
monit oring</w>
malay sia</w>
lin ked</w>
it a</w>
h ung
h un
g old</w>
farm ers</w>
de eds</w>
dam age</w>
critic ism</w>
coordin ated</w>
con stant</w>
c over
9 0</w>
we ather</w>
w is
ug s</w>
tour ist</w>
tar if
requ est</w>
ren min
renmin bi</w>
regul ation</w>
pi one
organiz ing</w>
neigh b
mee ts</w>
kaz ak
introduc ed</w>
enti tled</w>
contribu tion</w>
continu es</w>
consid ered</w>
tu red</w>
town ship</w>
r ob
min e</w>
m in</w>
includ es</w>
go t</w>
exper t</w>
deta ch
consist ent</w>
char ges</w>
be ar</w>
argent ina</w>
w a
tr il
satell ites</w>
reduc tion</w>
psy ch
practition ers</w>
perspec tive</w>
orig in
or m
or ate</w>
of fered</w>
man age</w>
ke t</w>
inter nation
hon est</w>
en orm
ed it
do z
bo ost</w>
bl ack</w>
ban king</w>
an a</w>
ag on</w>
xi amen</w>
reve aled</w>
r um
r ising</w>
proce ed</w>
pos sibility</w>
p a
oun d
oo d
fi er
event ually</w>
diplom acy</w>
b ia</w>
aw a</w>
ap poin
an xi</w>
ul g
tor ies</w>
recei ve</w>
philipp ine</w>
par is</w>
mobil ization</w>
m ess
l ateral</w>
h ence</w>
explor ation</w>
ent ary</w>
cze ch</w>
curr ency</w>
convic tion</w>
c ateg
bran ches</w>
b ing</w>
ap ply</w>
ai ds</w>
8 th</w>
w ast
tax es</w>
reli ef</w>
prepar ation</w>
phys ical</w>
pe tr
op posed</w>
ond on</w>
m erg
l ondon</w>
k er
fair ly</w>
ess es</w>
em en</w>
du </w>
dis play</w>
defin itely</w>
b ly</w>
an i</w>
ak es</w>
1 1
t ext</w>
su rely</w>
sp ain</w>
republ ican</w>
propor tion</w>
pres ented</w>
person ally</w>
ju red</w>
formul ate</w>
effec ts</w>
e ing</w>
dec line</w>
consolid ate</w>
ch eng
c ov
break through</w>
as si
ap pointed</w>
answ er</w>
y en</w>
stri ving</w>
sad dam</w>
per mission</w>
lan ded</w>
intellec tual</w>
in jured</w>
ili ation</w>
ic o</w>
frequ ently</w>
foll owed</w>
er ly</w>
eas y</w>
as k</w>
an ian</w>
zh eng</w>
yi el
syst em
sp ic
scor ed</w>
r out
mex ico</w>
leg ally</w>
investig ations</w>
im per
fl ying</w>
figh ter</w>
dr opped</w>
deli ber
d ar
corpor ations</w>
continu ing</w>
al ties</w>
tril lion</w>
t v</w>
re forming</w>
ob viously</w>
ne y</w>
li a
hot el</w>
hos tile</w>
fal se</w>
f ai
employe es</w>
ade qu
a p</w>
wel com
su m</w>
step ping</w>
secre t</w>
off er</w>
institu tion</w>
gu o
gather ing</w>
fle xi
dec la
corrup t</w>
concentr ated</w>
c over</w>
b o</w>
al -
traf fic</w>
sy n
st er</w>
satisfac tion</w>
reg ards</w>
rail way</w>
pe i</w>
op ens</w>
no tic
n ig
kill ing</w>
integr ate</w>
infl ation</w>
id ay</w>
hon or</w>
fel l</w>
ev ol
difficul ty</w>
dial ec
deleg ates</w>
cri tical</w>
c ars</w>
b arri
attr act</w>
3 -
19 5
wit n
vol un
under taking</w>
trou ble</w>
tim ul
selec tion</w>
s timul
r ol
pri or</w>
or ge</w>
oc ean</w>
ob tained</w>
o tian</w>
n ity</w>
mr .</w>
ji a</w>
h ur
dr ugs</w>
di vi
dec re
d il
critici zed</w>
ad minist
8 .
with draw
tac tics</w>
sur plus</w>
st abil
special ized</w>
separati st</w>
relig ion</w>
mari time</w>
instruc tions</w>
hous es</w>
foll owers</w>
ex plan
at tained</w>
ass ess
welcom ed</w>
w ait</w>
tan e
str ai
r o</w>
poll ution</w>
ph il
n ia</w>
mit ting</w>
journ al
fur ther
con firmed</w>
col on
co sts</w>
ul t</w>
tac tical</w>
sud den
sel ling</w>
saf e</w>
s ites</w>
remain ed</w>
profession als</w>
o ther
medic ine</w>
mar ks</w>
ear n
199 1</w>
10 ,000</w>
war ned</w>
ur s
secre tar
ri ed</w>
re jec
r ig
prosper ous</w>
on to</w>
multi lateral</w>
mo tions</w>
mer ely</w>
man if
loc ated</w>
jud ging</w>
h ab
gr an
g ame</w>
fr an
enorm ous</w>
beg un</w>
beg in</w>
b s</w>
2 4
y un</w>
ter ed</w>
shap e</w>
s il
qin gh
prov ides</w>
prom p
per forming</w>
inten tion</w>
in s</w>
g arr
foc using</w>
dri ving</w>
di versi
descri bed</w>
def end</w>
dang er</w>
coun ties</w>
cl im
brig ade</w>
bl ue</w>
ar ance</w>
vigor ous</w>
selec ted</w>
re conc
q in</w>
produc ing</w>
prev enting</w>
pass ing</w>
oun ding</w>
nam ed</w>
lin ed</w>
l ose</w>
it ure</w>
investig ate</w>
im possible</w>
hel ped</w>
f ly</w>
dam aged</w>
cultiv ating</w>
ca uses</w>
am id</w>
world wide</w>
thor ough</w>
t y
remar k
offic er</w>
mil len
inten sive</w>
i ble</w>
foun ded</w>
ell ed</w>
ef ul
consult ative</w>
competi tive</w>
accur ate</w>
wis dom</w>
ris k</w>
rec eption</w>
push ing</w>
pur poses</w>
pre lim
or ious</w>
offic es</w>
n arr
me ticul
m b</w>
l ov
l ad
h ou</w>
ge orge</w>
g ang</w>
emerg ed</w>
destro y</w>
c anc
am m
ag end
9 th</w>
zu el
war ds</w>
tow ns</w>
sudden ly</w>
strateg ies</w>
stead ily</w>
rec ru
quanti ty</w>
p ass</w>
n md</w>
mongol ia</w>
in st
im pres
figh ters</w>
fa il</w>
dig nity</w>
decla red</w>
dec reas
cul ts</w>
correspon ding</w>
cl o
bud d
brief ing</w>
200 2</w>
ven e
vene zuel
v ital</w>
treas ury</w>
tax ation</w>
tal ented</w>
sy ri
stu died</w>
sin c
repe ated</w>
re action</w>
prom ulg
plan ts</w>
l ing
l ag
imm igr
he av
fl ow</w>
fe es</w>
f s</w>
f ash
exclu sive</w>
exce eded</w>
effici ent</w>
cont em
ch er</w>
cas u
bot t
at tain</w>
achiev ement</w>
w all</w>
sinc ere</w>
sh oo
resul ting</w>
pl ay
ic op
hel icop
fr au
dr op</w>
di ties</w>
demonstr ated</w>
consci ousness</w>
commo dities</w>
col leg
be i</w>
an istan</w>
agend a</w>
afgh anistan</w>
acci dents</w>
we d
urugu ay</w>
u sted</w>
tel l</w>
st ations</w>
st ar</w>
ser ves</w>
semin ar</w>
regist ered</w>
pursu ing</w>
net te</w>
neighbor ing</w>
immedi ate</w>
expl ic
ement ary</w>
dis armament</w>
consum er</w>
as ing</w>
ar gu
an nette</w>
w arm
viol ence</w>
si ght</w>
rad ar</w>
p e</w>
other wise</w>
ha otian</w>
fund ed</w>
expend iture</w>
colleg es</w>
7 .
4 5</w>
19 6
+ </w>
z hu
reser ves</w>
r igh
ou l</w>
nation wide</w>
mo tion</w>
min ority</w>
mater ial
lat ter</w>
h d
garr ison</w>
ex posed</w>
concentr ate</w>
co ast</w>
bir th</w>
ab ide</w>
y ang
ob serve</w>
eigh th</w>
corpor ate</w>
concl uded</w>
con ve
c ement</w>
budd h
analy sts</w>
wh ole
w u
w ing</w>
sac red</w>
s au
obstac les</w>
n d</w>
mac ro
g ore</w>
enh ancement</w>
e able</w>
b os
4 00</w>
whole hear
ur gency</w>
trans fer
tem per
step ped</w>
op pon
man eu
le ague</w>
lan qing</w>
ic k</w>
gr ounds</w>
fel d</w>
exc es
cu ban</w>
coordin ate</w>
compu ters</w>
ath le
ag encies</w>
2 nd</w>
varie ty</w>
sust ain
sur r
sub si
sof tw
sen ding</w>
rejuven ation</w>
reconc iliation</w>
pr en
pren eur
may or</w>
in dis
hd ad</w>
form ally</w>
fier ce</w>
exten sively</w>
equi pped</w>
bag hdad</w>
taiw anese</w>
survi val</w>
spo t</w>
soldi er</w>
softw are</w>
represent ing</w>
pro b
phenomen on</w>
ord ered</w>
o kin
nat ur
less ons</w>
jud g
hu ai</w>
gr ati
consider able</w>
br illi
ash ed</w>
ar ous
apolog ize</w>
ai ming</w>
af firmed</w>
ad just
1 2
tr ig
ti st</w>
submar ines</w>
stipul ations</w>
spon sor
sl ow</w>
sec tion</w>
s feld</w>
rum sfeld</w>
rein force</w>
ref used</w>
phenomen a</w>
millen ni
m t</w>
le aving</w>
i fied</w>
gre ece</w>
fal un</w>
ent re
en a</w>
dialog ues</w>
co t
ab sor
vi de
tre at</w>
swe den</w>
sustain able</w>
simul tane
respec tive</w>
prov en</w>
lo ve</w>
j ur
intensi fied</w>
g ol
ell ow</w>
ch er
call ing</w>
brea king</w>
a str
y er</w>
transi tion</w>
ten ing</w>
struc tures</w>
stres sing</w>
separ ation</w>
see ing</w>
rep air</w>
recei ving</w>
ra in</w>
r mb</w>
pros ec
promin ent</w>
pre fec
millenni um</w>
kazak h
k id
k er</w>
k a</w>
fundam ent
fash ion</w>
f ol
ex ac
de sign</w>
cultiv ation</w>
artic les</w>
arr og
z er
yon d</w>
xia o
wan ted</w>
th ai</w>
r oll
n om
mon day</w>
ment ality</w>
l s</w>
exten d</w>
enjo yed</w>
em ployed</w>
eful ly</w>
detach ment</w>
def ensive</w>
be yond</w>
au di
assess ment</w>
yun nan</w>
sym posi
stre am</w>
s old</w>
recogn ized</w>
progres sive</w>
ole um</w>
okin awa</w>
natur ally</w>
minist erial</w>
ir on</w>
in ner</w>
h our</w>
er v
ell ing</w>
eas ily</w>
cr o
contem porary</w>
comm emor
c overed</w>
beauti ful</w>
arre sted</w>
am bi
1 6
w il
ur </w>
th urs
tal i
tain ment</w>
t s
t ough</w>
sign s</w>
si x
sh ed</w>
s av
resum e</w>
requ ire</w>
pr oli
proli fer
n e</w>
m em
lo an</w>
ital ian</w>
h ering</w>
gre en</w>
gener ations</w>
fle et</w>
fl ood</w>
evid ence</w>
evalu ation</w>
entre preneur
electr ical</w>
conven i
cap ita</w>
brid ge</w>
ball istic</w>
b one</w>
av ail
adap t</w>
ad hering</w>
ab and
war time</w>
w ro
wro te</w>
vo ters</w>
u ous</w>
tom or
tomor row</w>
thurs day</w>
separ ated</w>
reflec ted</w>
promp tly</w>
off ensive</w>
my an
kazakh stan</w>
in f
hear ing</w>
fr y</w>
comm unique</w>
casu alties</w>
accompl ish</w>
with draw</w>
utili zation</w>
up held</w>
un sw
tel ep
se oul</w>
recogn ize</w>
pres se</w>
prepar ing</w>
petr oleum</w>
part ner</w>
le ban
l er</w>
inter vention</w>
in sist
geo graph
feel ing</w>
e ases</w>
d ates</w>
cr ack</w>
becom es</w>
al titude</w>
agre e</w>
adop ting</w>
acceler ated</w>
2 ,
upgrad ing</w>
ti gh
st ages</w>
refu ge
pl ays</w>
phil os
patrio tic</w>
mor ed</w>
mist akes</w>
macro economic</w>
m en
m ar</w>
gun s</w>
expres sion</w>
ev </w>
electr ic</w>
draw ing</w>
d ness</w>
carri er</w>
all ed</w>
wom an</w>
wh at
war ships</w>
w ave</w>
tu esday</w>
ti de</w>
sugg ested</w>
solem n</w>
rel ax
rel atives</w>
r aft</w>
qu alities</w>
pre fer
mul tin
isl am
ic ity</w>
foll ows</w>
exam ine</w>
enti rely</w>
e tr
discus sing</w>
compos ed</w>
comm ents</w>
col um
c ou
br and</w>
back ground</w>
addres s</w>
acc ess</w>
wee ks</w>
viol ating</w>
ug al</w>
to tal
st one</w>
shar p</w>
s essions</w>
rein forc
recti fication</w>
prolifer ation</w>
ong s</w>
ne gl
m ad
l t
guidel ines</w>
eng aging</w>
en th</w>
e y</w>
dow n
dis eases</w>
di v
de dic
chec k</w>
bel ow</w>
batt les</w>
ban k
austr ia</w>
ag ence</w>
3 5</w>
zh i
y e</w>
tol er
than ked</w>
tai pei</w>
sim ply</w>
sch em
reflec t</w>
pris on</w>
poli tici
philos oph
milit ar
is ite</w>
intro duce</w>
inev itable</w>
ind ig
increas es</w>
in tr
here tical</w>
encour aging</w>
en vo
di stor
consid ering</w>
compens ation</w>
bo ats</w>
un ite</w>
tradi tions</w>
ro y
pun ished</w>
publ ication</w>
on line</w>
oblig ations</w>
me t
m id
lt d</w>
inter pre
in her
ide olog
for tun
f ishing</w>
exac tly</w>
doub t</w>
de signed</w>
concer ted</w>
co ali
capital ism</w>
bil ity</w>
ban qu
ab m</w>
tion ally</w>
su red</w>
separ ate</w>
se as
remark able</w>
quic k</w>
purch ase</w>
pres sing</w>
port ugal</w>
pl ed</w>
mean ing</w>
li ons</w>
it ably</w>
innov ative</w>
il legally</w>
i alization</w>
gre w</w>
fac tory</w>
emb ar
connec tion</w>
bor n</w>
ang le</w>
anc y</w>
adv ancement</w>
: 00</w>
y o
ten sion</w>
ten ed</w>
ten d
stre et</w>
sover eign</w>
s par
quo ted</w>
pun ishment</w>
p ality</w>
ou d</w>
op s</w>
munici pality</w>
manag ed</w>
in gu
i at</w>
he ight</w>
happ ened</w>
guang xi</w>
formul ation</w>
experi enced</w>
ev a</w>
est ate</w>
dr af
coali tion</w>
ar mored</w>
anim al</w>
and ong</w>
ab u</w>
z es</w>
withdraw al</w>
um s</w>
threat ened</w>
symposi um</w>
sm en</w>
sl ov
sl igh
si on
shi pping</w>
sha res</w>
se ems</w>
s ale</w>
q i</w>
origin ally</w>
ob tain</w>
myan mar</w>
jud ge</w>
interc ep
im posed</w>
idd en</w>
ell s</w>
de ployed</w>
d es</w>
cultiv ate</w>
command ers</w>
chil ean</w>
appoin t
ap s</w>
al ing</w>
administ ering</w>
a er
un re
tr ained</w>
through s</w>
tal king</w>
si ze</w>
sh r
ri d</w>
resist ance</w>
re ds</w>
pr er
prer equ
pen etr
peace keeping</w>
par ents</w>
mess age</w>
l ic
jin tao</w>
it ting</w>
f aster</w>
do or</w>
desi re</w>
degre es</w>
cre d
ch ap
candi date</w>
break throughs</w>
ast ers</w>
all owing</w>
ad mitted</w>
accoun ted</w>
accor d</w>
6 00</w>
y an
witn essed</w>
wed n
w aves</w>
techn i
sim ple</w>
s an
perc ent
part ners</w>
or ed</w>
ol ation</w>
le y</w>
la sting</w>
ist ani</w>
is lands</w>
inter f
interf ere</w>
integr ating</w>
h k
eng l
dr ill</w>
dispu te</w>
depos its</w>
criter ia</w>
congres ses</w>
ch r
bl ed</w>
attr acted</w>
any thing</w>
13 th</w>
11 th</w>
st opped</w>
spec ific
prom ised</w>
pal ities</w>
org an</w>
oper ate</w>
munici palities</w>
multin ational</w>
mor t
m ur
house hold</w>
g un</w>
ey e</w>
entrepreneur s</w>
dy nam
dec ide</w>
cre ati
cor ps</w>
compon ent</w>
acc used</w>
ab use</w>
wholehear tedly</w>
wedn esday</w>
te ams</w>
publ ishing</w>
patrio tism</w>
occup ied</w>
ob vious</w>
neighb ors</w>
la ying</w>
inform ation
formul ating</w>
earn est</w>
e ve</w>
deta iled</w>
de st
consequ ences</w>
ch ong</w>
brilli ant</w>
bl air</w>
assist ant</w>
af for
7 -
5 0th</w>
5 ,000</w>
wor ried</w>
vo ice</w>
uni ons</w>
thre ats</w>
th y</w>
tan ks</w>
su ic
stri kes</w>
stipul ated</w>
sett le</w>
sen si
s cre
reflec ts</w>
prot est</w>
list en</w>
lim it</w>
li vel
l ec
ho sted</w>
forec ast</w>
for est</w>
fl ights</w>
fin land</w>
f arm</w>
egyp t</w>
dis asters</w>
d er
consci ously</w>
concer ns</w>
ch en
bu m
banqu et</w>
ap ped</w>
accur ately</w>
4 -
vir tu
superi or</w>
stic k</w>
sev enth</w>
s ail
ro ads</w>
res ource</w>
r aid</w>
prefer ential</w>
pra ised</w>
plat e
percent age</w>
parliam entary</w>
mo tive</w>
mag n
lar ger</w>
jo h
hund reds</w>
hi b
fr iday</w>
dif ference</w>
d ul
d ens</w>
con ver
cambodi a</w>
aw are</w>
author ized</w>
ac </w>
w ind</w>
valu able</w>
trans form</w>
th west</w>
su it</w>
stan ds</w>
st ers</w>
spac ec
spacec raft</w>
regre t</w>
pho to
peace time</w>
nation ality</w>
mas sive</w>
jiang xi</w>
iz ations</w>
it ful</w>
gl orious</w>
form al</w>
facilit ate</w>
extrem e</w>
exer t</w>
err one
entr usted</w>
engl ish</w>
chann el</w>
ch un</w>
ch ers</w>
care fully</w>
c ent</w>
bar ak</w>
bank rup
3 2</w>
14 th</w>
tur k
sur pris
sub ordin
sponsor ed</w>
s am
ran k</w>
op ol
offic ially</w>
multi ple</w>
l ong
jiang su</w>
introduc tion</w>
hear ts</w>
g an
fundament ally</w>
expl ained</w>
encour aged</w>
dispat ched</w>
deleg ations</w>
civil ians</w>
c en
bomb s</w>
autom o
att acked</w>
ann an</w>
al bright</w>
19 4
vo ting</w>
view ing</w>
univers al</w>
stud ent</w>
sp ent</w>
sou l</w>
shou l
shoul der</w>
sau di</w>
sac ri
reven ues</w>
respec ts</w>
resol ute</w>
qu an
qu al
q a
plat form</w>
on ia</w>
nig er
nav ig
n as
j er
iz hou</w>
infr ing
inev itably</w>
ic ians</w>
gen eva</w>
fe ud
expres sing</w>
dis played</w>
cour age</w>
avail able</w>
a sion</w>
6 -
zh ong</w>
y ao</w>
wat ch</w>
tex tile</w>
sl ow
six th</w>
short age</w>
resul ted</w>
re ad</w>
psych ological</w>
proce eding</w>
proc ed
prerequ isite</w>
o d
lo s</w>
livel i
k ers</w>
k en
j um
j ing
institu tes</w>
he ard</w>
h ang
fam ili
f ill
enjo ys</w>
crimin als</w>
b a
arous ed</w>
advoc ated</w>
accompan ied</w>
wast e</w>
vig or</w>
vig il
viet nam
vietnam ese</w>
vide o</w>
sincer ely</w>
shou ld
sh ot</w>
s aving</w>
rol es</w>
r ac
prison ers</w>
prelim inary</w>
pass eng
palestin ians</w>
pak istani</w>
ou fl
no tice</w>
nam es</w>
mo ther</w>
mil iti
inter medi
im ported</w>
explo sion</w>
ex ists</w>
du m</w>
discipl inary</w>
dil ig
d ong
con form</w>
buil dings</w>
back bone</w>
as signed</w>
any one</w>
al ban
advoc ate</w>
a pers</w>
up per</w>
un anim
transfer red</w>
tend ency</w>
tal ked</w>
stoc ks</w>
spe ak</w>
signific antly</w>
sha anxi</w>
s tic</w>
re turning</w>
prepar e</w>
por ting</w>
mar ine</w>
mag az
i um</w>
fre sh</w>
fl oods</w>
fe a
electr icity</w>
ed a</w>
cultiv ated</w>
convic tions</w>
contr ary</w>
con sec
compe t
com ment</w>
collec tion</w>
col li
char ter</w>
ch ung</w>
cam oufl
arti stic</w>
so il</w>
se ized</w>
sat ur
sacri fic
s ave</w>
ric e</w>
regim e</w>
r i</w>
pursu it</w>
presid ed</w>
out line</w>
olymp ics</w>
mov es</w>
mod e</w>
hung ary</w>
graph y</w>
ex pe
enti onal</w>
en de
ende av
decreas ed</w>
de plo
construc tive</w>
bom b</w>
bo at</w>
bi ological</w>
appl ying</w>
answ ered</w>
a eg
6 3</w>
tour ists</w>
th ough
tal ents</w>
t us</w>
sh el
sh ared</w>
ri bao</w>
resol utions</w>
res et
reli able</w>
posi t</w>
ple ased</w>
pe i
op ping</w>
oc curr
observ ation</w>
newsp apers</w>
negl ec
le ap</w>
ker ry</w>
k i</w>
ju sted</w>
itu res</w>
il in</w>
ha w
g aining</w>
fri end</w>
for eign
farm ing</w>
expec t</w>
exam ples</w>
creati vity</w>
cr os
construc ting</w>
conc e
circul ation</w>
circul ar</w>
cal cul
athle tes</w>
ar ch
appe al</w>
ann ian</w>
7 5</w>
2 ,000</w>
wid ely</w>
vess el</w>
unsw erv
unswerv ingly</w>
u re
t ball</w>
si onal</w>
recor ds</w>
re pu
n ow
liveli hood</w>
explor ing</w>
errone ous</w>
enabl ed</w>
em br
doc tr
de posit</w>
cr ash</w>
cr acking</w>
conv entional</w>
capital ist</w>
bur dens</w>
adv ances</w>
adher ence</w>
accumul ated</w>
ac knowled
typ ical</w>
tiv ity</w>
ti ally</w>
sud den</w>
sh oc
s ex
re turns</w>
plac ing</w>
p ath
out come</w>
mobil ized</w>
mil lions</w>
memb ership</w>
loo ked</w>
industr ialization</w>
i b
gu est</w>
g ood
fac es</w>
eth ics</w>
edit orial</w>
destro yers</w>
dep end</w>
d ay
cul tures</w>
constitu te</w>
confid ent</w>
commit ment</w>
ch ance</w>
bit r
b ab
ar ena</w>
ar bitr
appra is
what ever</w>
w o
w a</w>
usu ally</w>
us eful</w>
text books</w>
ten s</w>
standardi zed</w>
set up</w>
selec t</w>
re ference</w>
prec ision</w>
ple as
m ic
lab or
inter ior</w>
inten s
gras ping</w>
gen u
gather ed</w>
defe at</w>
deep er</w>
contradic tion</w>
contr act</w>
champion ship</w>
ca str
bat ch</w>
b acks</w>
automo bil
an ish</w>
wh om</w>
vent ure</w>
trad es</w>
terror ists</w>
summ er</w>
spee ding</w>
satisfac tory</w>
re place</w>
predic ted</w>
pione ering</w>
l and
inten se</w>
in aug
impe tus</w>
g y
flexi ble</w>
f ish
es cal
deter i
defin ed</w>
de t
d im
cor di
comm uni
co al</w>
castr o</w>
cap e</w>
candi dates</w>
5 5</w>
z a</w>
w annian</w>
vehic le</w>
tan k</w>
tack le</w>
suf fer</w>
sl og
sh a</w>
sel s</w>
s cr
r ou
pol arization</w>
p ill
nor theast</w>
k ar
inter viewed</w>
imper ative</w>
im ag
high way</w>
gree k</w>
fu el</w>
fru itful</w>
fin ding</w>
f ar
exces sive</w>
en force</w>
en er
deal t</w>
commo d
com for
c lear
appropri ately</w>
appro ach
aeg is</w>
tre es</w>
traf fic
ti </w>
though ts</w>
suic ide</w>
sub mit</w>
sor ts</w>
sincer ity</w>
sh andong</w>
rom ania</w>
res or
represent ations</w>
ren ov
remar k</w>
remain ing</w>
r ong
publ ications</w>
procurat orate</w>
preser ving</w>
pre text</w>
pr o</w>
p el
ob struc
n ast
mac ro</w>
k mt</w>
k ash
it ly</w>
hop ing</w>
explan ation</w>
er t</w>
e ts</w>
dist ingu
dist inc
dig ital</w>
d ers</w>
criter ion</w>
chil d</w>
br us
al ter
al le
adequ ate</w>
ad ed</w>
3 8</w>
3 3</w>
10 0,000</w>
/ </w>
we i
under take</w>
the ater</w>
supervis ory</w>
super sti
restr aint</w>
re tali
rati o</w>
qa eda</w>
presid ents</w>
preci ous</w>
poli tically</w>
pat r
nor ms</w>
no te</w>
iz es</w>
inform al</w>
in land</w>
in fer
for ever</w>
f ate</w>
exerc ising</w>
est ation</w>
ent y</w>
ener ge
congres smen</w>
c au
brus sels</w>
broad ca
appoint ment</w>
appl i
appe ar</w>
announ cement</w>
am end
age ous</w>
a si
23 rd</w>
wee k
viol ate</w>
spec ially</w>
sof t</w>
shoo ting</w>
selec ting</w>
s wi
s li
philosoph y</w>
p in
occa sion</w>
mo tor
min ute</w>
min im
liter ary</w>
k ang</w>
ji ab
jiab ao</w>
h as
fulfill ing</w>
for ge</w>
emancip ating</w>
el and</w>
du m
def ending</w>
da e</w>
contr acts</w>
c ope</w>
bos nia</w>
bel i
b ound
ar af
araf at</w>
accompl ished</w>
3 ,
200 3</w>
xi ang
w ounded</w>
th es
si bly</w>
sent enced</w>
se izing</w>
sa ke</w>
s und
represent ed</w>
refuge es</w>
reconnais ance</w>
r are</w>
promulg ated</w>
n a</w>
mat ch</w>
m ol
li ang</w>
k istan</w>
journal ists</w>
issu ance</w>
in put</w>
im pac
heg emony</w>
he igh
form alism</w>
foreign ers</w>
fil m</w>
every where</w>
el ev
dre w</w>
direc ted</w>
devo ted</w>
dec lined</w>
cour ts</w>
coll ap
cl ass
cen sus</w>
categ ories</w>
1 50</w>
z i</w>
x ue
t ung</w>
stat ements</w>
smo ke</w>
re moved</w>
qu an</w>
pu dong</w>
proced ure</w>
pil ots</w>
per formed</w>
negoti ation</w>
narr ow</w>
n er
n ar
mist ake</w>
magn ific
j ord
ish ments</w>
invol ve</w>
h one</w>
h k</w>
gre en
gr own</w>
gi ves</w>
fir ing</w>
enabl ing</w>
dis rup
civil izations</w>
c li
broad cast</w>
b es</w>
attr acting</w>
arri val</w>
amoun ts</w>
addi tional</w>
wor r
u red</w>
tem porary</w>
subjec ts</w>
sp end</w>
simultane ously</w>
sensi tive</w>
reti red</w>
real ities</w>
par k</w>
observ ers</w>
le t
la sted</w>
k ou</w>
in ter</w>
in spir
imm olation</w>
further more</w>
fav or</w>
expend itures</w>
educ ate</w>
dr am
dep ends</w>
cru ise</w>
cov en
ch ir
ch ao</w>
cam p</w>
bud gets</w>
atis m</w>
abl ed</w>
8 00</w>
x u
x ian</w>
wi der</w>
ut most</w>
un ceas
tun is
telep hone</w>
ta il</w>
specific ally</w>
shi f
shar on</w>
scienti fic
s en</w>
rout ine</w>
reset t
rec ord
preser ve</w>
pre mis
oc e
ni tion</w>
moun tains</w>
min es</w>
mar g
l am
in k</w>
in fec
im pose</w>
il ian</w>
har dly</w>
explic itly</w>
exam ined</w>
equ ity</w>
en counter
dec ade</w>
cot ton</w>
con spic
comb ine</w>
col om
chen ey</w>
character ized</w>
canad ian</w>
appe arance</w>
an men</w>
aer os
ad mir
a ult</w>
viol ent</w>
vi d</w>
utili zing</w>
under ground</w>
u k</w>
stipul ates</w>
shor e</w>
restric tions</w>
re move</w>
ra w</w>
por no
occup y</w>
la g</w>
l ying</w>
han ded</w>
go d</w>
gan su</w>
fai th</w>
f ile</w>
dr as
destro ying</w>
de ser
comple tion</w>
commis sar</w>
collec ted</w>
co he
civil ized</w>
c le</w>
c ard</w>
bl ind</w>
beli efs</w>
barri ers</w>
au d
as king</w>
arm ac
an gr
ak er</w>
aeros pace</w>
yong yang</w>
where as</w>
traffic king</w>
tian anmen</w>
secon d
se in</w>
s abo
ru i
re placed</w>
r ong</w>
pol l</w>
min ing</w>
magnific ent</w>
l un
jun g</w>
j en
it or</w>
intensi fying</w>
in str
hus sein</w>
gar ia</w>
frau d</w>
fil tr
e z</w>
dr ill
divi ded</w>
d ated</w>
cre w
bul garia</w>
bro ken</w>
bott om</w>
attr ibu
at t</w>
analy ze</w>
ag ers</w>
af fair</w>
20 10</w>
199 0s</w>
zer land</w>
venezuel a</w>
tu m
ti er</w>
t ang
swit zerland</w>
sund ay</w>
second ary</w>
sabo t
roc ket</w>
r og
r en</w>
r ation
posi tively</w>
pic ture</w>
ph one</w>
or ities</w>
ol a</w>
mobil ize</w>
maintain s</w>
ma xim
lia oning</w>
len in
l a</w>
ku om
is ol
intens ity</w>
indig nation</w>
in filtr
hy dr
gr ams</w>
g org
g ains</w>
fle w</w>
f em
f ast
ex it</w>
det ec
dec ei
cre ative</w>
cre ation</w>
conv in
compar atively</w>
ch ic
cer ti
camoufl age</w>
braz ilian</w>
au th
arm ies</w>
al ty</w>
wor thy</w>
volun te
und ant</w>
tr acking</w>
syri a</w>
subsi dies</w>
sm all
s an</w>
occur </w>
n ly</w>
meticul ously</w>
marke ting</w>
machin ery</w>
lu o</w>
less on</w>
kuom int
in s
gorg es</w>
g ong</w>
g ang
exten ding</w>
exp enses</w>
ex em
exem pl
electron ics</w>
diversi fied</w>
dis charge</w>
con str
clo thing</w>
cl aims</w>
cir cu
cheng du</w>
b arr
arrang ed</w>
ar ouse</w>
ap par
amm uni
al i</w>
ag m
adher ed</w>
3 4</w>
3 ,000</w>
z u</w>
y el
wu han</w>
under stood</w>
ten se</w>
succe ed</w>
substan tial</w>
spre ading</w>
si gh
sett led</w>
sc and
push ed</w>
ph armac
optim istic</w>
o be
manufac tur
l ama</w>
kuomint ang</w>
internation ally</w>
hun an</w>
ha th
fill ed</w>
fe ar</w>
envo y</w>
determin e</w>
deta ils</w>
d less</w>
consolid ating</w>
consec utive</w>
con fer
character istic</w>
chap ter</w>
c m
bu y</w>
appl ic
a ward</w>
3 6</w>
200 5</w>
198 0</w>
w ant
w age</w>
virtu e</w>
view point</w>
vent ures</w>
utili zed</w>
un less</w>
tre ated</w>
trans par
tor ily</w>
ti ary</w>
ter min
temper ature</w>
tarif fs</w>
sum mar
stri king</w>
special ists</w>
sett ling</w>
roo t</w>
read just</w>
pros pect</w>
pal ace</w>
n ative</w>
law yers</w>
it age</w>
indic ates</w>
in sufficient</w>
ic ate</w>
hu an</w>
guarante es</w>
good will</w>
for ests</w>
fo ster</w>
enem ies</w>
elimin ating</w>
econom ics</w>
dr agon</w>
doz en</w>
design ated</w>
de ad
coven ant</w>
char ged</w>
ass ist</w>
ad d</w>
5 th</w>
y ong</w>
wel coming</w>
wel comes</w>
un il
un changed</w>
ti tle</w>
ti ble</w>
te sted</w>
system atic</w>
syn dic
succe eded</w>
sh o
sh e
s occ
socc er</w>
read just
re bel
quar ant
pursu ed</w>
prov oc
prim arily</w>
or bit</w>
me tr
ma hath
la h</w>
it ative</w>
invol ves</w>
introduc ing</w>
institu tional</w>
indone sian</w>
immigr ants</w>
hus b
harmon y</w>
fru its</w>
for man
ex tra
ex positions</w>
econom ists</w>
direc tors</w>
crew members</w>
co existence</w>
bor ne</w>
big ger</w>
apprais al</w>
ain ts</w>
ad ver
ab or
a ths</w>
a il</w>
yang t
xi e</w>
wor ry</w>
wa iting</w>
up grade</w>
ten th</w>
ten sions</w>
suspec ted</w>
se ats</w>
respec ting</w>
resear chers</w>
r ally</w>
prin t</w>
plate au</w>
p yongyang</w>
ord erly</w>
niger ia</w>
mobil ity</w>
mahath ir</w>
ke jie</w>
in ations</w>
guidel ine</w>
fl owers</w>
fe e</w>
famili ar</w>
f ought</w>
f ish</w>
f an</w>
econom ically</w>
dist ur
deteri or
de par
comple ting</w>
compar ison</w>
communi ques</w>
commit ments</w>
comb ining</w>
bl es</w>
ast s</w>
assum e</w>
al ist</w>
advoc ating</w>
yu xi</w>
youn ger</w>
us al
unre mitting</w>
u ted</w>
turk ish</w>
tr ag
suf fering</w>
su itable</w>
st er
shen yang</w>
set backs</w>
scientific ally</w>
s ought</w>
rul ed</w>
regar dless</w>
re v
re mo
ple ase</w>
pharmac eu
pati ents</w>
ne ar
mo tiv
ministr ies</w>
mast ers</w>
li vely</w>
lenin ism</w>
leban on</w>
la de
il a</w>
hk sar</w>
hegemon ic</w>
gi ant</w>
fem ale</w>
exempl ary</w>
evid ent</w>
encounter ed</w>
emphasi ze</w>
e di
contribu ted</w>
bang lade
ath ens</w>
are ly</w>
alloc ation</w>
6 5</w>
x ia</w>
vic tories</w>
ve ter
usal em</w>
un favorable</w>
tack ling</w>
sp anish</w>
shi el
secretar iat</w>
satisfac torily</w>
revis ed</w>
relation ships</w>
reach es</w>
re ver
quarant ine</w>
q at
public ly</w>
protec ted</w>
pr agm
politici ans</w>
parliam ents</w>
pain st
no t
m ir</w>
let ters</w>
jer usalem</w>
initi ally</w>
emp ty</w>
e at</w>
e a</w>
de aths</w>
ci a</w>
batt al
attemp ts</w>
appro xim
ann ually</w>
am ed</w>
5 0,000</w>
vigil ance</w>
un healthy</w>
ul tim
tr ic
territ ories</w>
ten n
tarif f</w>
t less</w>
t ap
st aged</w>
split tist</w>
some times</w>
sol ic
shi p
reinforc ing</w>
re comm
qu een</w>
qingh ai</w>
prepar atory</w>
premis e</w>
pled ged</w>
neighbor ly</w>
mor i</w>
mean time</w>
judg ment</w>
jord an</w>
issu ing</w>
ing ness</w>
in sti
ific ations</w>
h idden</w>
gradu ate</w>
gr av
fir ms</w>
fin ancing</w>
fi red</w>
expec tations</w>
endeav or</w>
e i</w>
e ag
domin ant</w>
demonstr ate</w>
decre ase</w>
cu b
consum ers</w>
conspic uous</w>
congratul ations</w>
condem ned</w>
compe te</w>
cm c</w>
bu s</w>
bl in
bal anced</w>
automobil e</w>
audi o</w>
as c
am ents</w>
ai red</w>
3 7</w>
12 th</w>
1. 2</w>
zh eng
wal ks</w>
vill ages</w>
vic ious</w>
unceas ingly</w>
ther lands</w>
tai </w>
strai gh
small er</w>
shor tly</w>
sh ir
s core</w>
ren min</w>
ren e
record ed</w>
quan you</w>
poss ess</w>
pos sibly</w>
pol ar</w>
pic tures</w>
ou ter</w>
ne therlands</w>
monit or</w>
manag er</w>
m el
log is
kash mir</w>
k h
gre et
greet ings</w>
fulfill ed</w>
fin ished</w>
fac tories</w>
en ri
el se</w>
cr ude</w>
cordi al</w>
con forms</w>
bloc k
b ay
assum ed</w>
ash es</w>
anim als</w>
will ingness</w>
wil d</w>
wh el
w an</w>
v eg
up coming</w>
unanim ously</w>
ts in</w>
to ol</w>
sud an</w>
sol e</w>
simul ated</w>
separ ately</w>
remo te</w>
ref use</w>
ref ers</w>
re viewed</w>
re construction</w>
produc tivity</w>
over whel
navig ation</w>
milit ants</w>
manag ers</w>
main stream</w>
logis tical</w>
lif t</w>
l eng
ku wait</w>
jur is
independ ently</w>
in qu
im f</w>
har b
gu izhou</w>
gu am</w>
gradu ates</w>
for ged</w>
flo or</w>
fall ing</w>
end er</w>
di ving</w>
di et</w>
develop s</w>
commod ity</w>
clos ing</w>
cl aiming</w>
ch un
cat ch</w>
bl ing</w>
bi ao</w>
bang guo</w>
aspir ation</w>
al- qaeda</w>
acqu ire</w>
8 -
197 9</w>
yiel d</w>
yel tsin</w>
we ight</w>
v ac
urg ently</w>
un reasonable</w>
ten tion</w>
servic emen</w>
repu tation</w>
read iness</w>
re affirmed</w>
pi ece</w>
pan ama</w>
nast y</w>
min g
me te
machin e</w>
lu x
lov ing</w>
list ened</w>
le i</w>
k an</w>
juris dic
ir ish</w>
investig ated</w>
inspec t</w>
impres sion</w>
hero ic</w>
hen an</w>
helicop ters</w>
guarante ed</w>
fr anc
for em
feud al</w>
expl ain</w>
ex position</w>
ear th
dis closed</w>
dis abled</w>
d ingly</w>
cl aim</w>
cha o
care ful</w>
banglade sh</w>
autonom y</w>
an hui</w>
air planes</w>
air plane</w>
ad just</w>
4 8</w>
wh o
ur ation</w>
trans mission</w>
techni ques</w>
sym path
suppl ies</w>
supervis e</w>
stor m</w>
s un
s ri</w>
rou te</w>
rel ative</w>
mor ality</w>
mete or
manufactur ers</w>
man ila</w>
la ke</w>
ko k</w>
k un
k o</w>
investig ating</w>
inst all
in y</w>
i red</w>
harm ful</w>
ha o</w>
fl ag
fa ther</w>
end ang
emph atically</w>
embo died</w>
elimin ated</w>
doz ens</w>
de terr
cover ing</w>
counc il
comb ination</w>
cho ose</w>
bur g</w>
ar ts</w>
ang el
afr aid</w>
9 5</w>
5 8</w>
z z
wi de
who ever</w>
want only</w>
under going</w>
und ou
undou b
ultim ately</w>
ti l
success es</w>
subordin ate</w>
st a
sal v
rec ession</w>
read ing</w>
prot oc
plan ting</w>
patr ol</w>
of fering</w>
no ting</w>
necess ity</w>
near by</w>
le g</w>
ky r
kid n
islam ic</w>
ir ing</w>
initi ated</w>
i dem
happ iness</w>
ga za</w>
fron tier</w>
for get</w>
exce ed</w>
exc ept</w>
ex ported</w>
emerg ing</w>
ed ge</w>
dy nasty</w>
constitu tes</w>
comp ati
co st
ch os
c ali
bri ef</w>
aspir ations</w>
argent ine</w>
amoun ted</w>
acknowled ged</w>
20 ,000</w>
yugosla v</w>
yangt ze</w>
ty r
t u</w>
suspec ts</w>
summ ing</w>
sh ad
rel and</w>
prob ably</w>
po is
pei yan</w>
mus e
min ded</w>
me ter</w>
le ts</w>
insist ed</w>
i fy</w>
hu ai
gu </w>
gol den</w>
g la
g att</w>
dynam ic</w>
dre am</w>
distribu ted</w>
diplom ats</w>
democr ats</w>
defe ated</w>
dal ian</w>
cu tting</w>
compet ent</w>
cl ari
citiz en</w>
br ings</w>
al leg
affec ting</w>
adjust ments</w>
8 5</w>
2 6th</w>
you ths</w>
work er</w>
wh en
veg et
us ers</w>
undoub tedly</w>
un known</w>
su sp
sty les</w>
simul ation</w>
resid ential</w>
re organization</w>
re fr
popul ar
pay ments</w>
oppon ent</w>
o ing</w>
mon opol
mo stly</w>
lo y
lib ya</w>
know s</w>
kil o
infer ior</w>
im peri
i reland</w>
i e</w>
feat ure</w>
experim ents</w>
exp ense</w>
exam ining</w>
enter tainment</w>
em ed</w>
dum ping</w>
deman ding</w>
d are</w>
cour ses</w>
contr ols</w>
ch ur
aud iting</w>
as set</w>
arrog ance</w>
air s</w>
a x</w>
a side</w>
4 1</w>
10 .
0 0
zh en
z i
xi ao</w>
w ire</w>
w ind
viol ations</w>
v oc
ur ge</w>
um b
uc k</w>
u o</w>
strai ght</w>
serv ants</w>
ri vers</w>
repor ting</w>
rel s</w>
qu esti
pun ish</w>
pro hib
pres ence</w>
orig in</w>
lin king</w>
le aps</w>
l y
inv asion</w>
inf an
fall ac
experim ental</w>
emancip ate</w>
el ement</w>
div or
di e</w>
dam ages</w>
d ai</w>
contr over
contin ent</w>
chir ac</w>
cap tain</w>
c able</w>
bel ar
battal ion</w>
ay an</w>
austr ian</w>
arm aments</w>
a h</w>
5 3</w>
4 3</w>
3 1st</w>
19 th</w>
z im
y ellow</w>
wat ching</w>
warm ly</w>
vo ic
view points</w>
v angu
under gone</w>
th ri
tenn is</w>
techn icians</w>
surr ounding</w>
standardi ze</w>
split ting</w>
some what</w>
sligh tly</w>
shi ft</w>
sh in
seas on</w>
schem e</w>
s la
ri d
rel ating</w>
qat ar</w>
pre condition</w>
pr ole
prole tar
ong ed</w>
militi a</w>
maxim um</w>
ma il</w>
m u</w>
list ening</w>
lim its</w>
li e</w>
kyr gy
in formed</w>
hon est
f ang</w>
f ab
exp ounded</w>
ed y</w>
doctr ine</w>
d af
cr ashed</w>
collec ting</w>
cambodi an</w>
bankrup t
bang kok</w>
att acking</w>
ass ault</w>
arab ia</w>
alle vi
accompan ying</w>
ab ol
a j
4 2</w>
25 th</w>
x in</w>
wor st</w>
uc r
ti fied</w>
su ited</w>
st ad
sp here</w>
sp an</w>
s now</w>
s ens
s ay
resid ence</w>
requ ested</w>
qual ifications</w>
protoc ol</w>
princi pled</w>
pr oud</w>
peri o
p ent
ol der</w>
mat ure</w>
lif ting</w>
infan try</w>
in separ
in no
he ights</w>
gran ted</w>
gradu al</w>
f ili
exc eption</w>
est ing</w>
err ors</w>
enthusias tically</w>
enjo ying</w>
energe tically</w>
draf ting</w>
counter measures</w>
colli ded</w>
care er</w>
autom ation</w>
arrang ement</w>
approxim ately</w>
am i</w>
al ize</w>
ag ement</w>
accep ting</w>
abl es</w>
zha o
with stand</w>
when ever</w>
ti ous</w>
stimul ate</w>
spe aker</w>
sor ry</w>
sol utions</w>
sent ence</w>
ru chao</w>
resum ption</w>
restric ted</w>
restor ation</w>
respec ted</w>
recog nition</w>
rebel s</w>
re plac
ran ked</w>
qui red</w>
pleas ure</w>
pent agon</w>
pati ent</w>
om ing</w>
o to</w>
nor way</w>
mer ch
mac au</w>
ma kers</w>
low est</w>
l ou
kilo grams</w>
interc eption</w>
information ization</w>
il ing</w>
heav en</w>
har a</w>
h wa</w>
gu of
for ging</w>
dilig ently</w>
demonstr ation</w>
del ay</w>
de v
de fl
consider ations</w>
con fu
cl ash</w>
cau ght</w>
belar us</w>
ban ned</w>
b ing
b ay</w>
alli ed</w>
al ert</w>
afgh an</w>
advis er</w>
4 7</w>
wide spread</w>
we igh
usu al</w>
ur ging</w>
un fol
sup er</w>
sp y</w>
sav ings</w>
re sign
re ag
purch asing</w>
public ity</w>
pi ec
p ens
on ism</w>
minim um</w>
material ism</w>
l as
invest ing</w>
intermedi ate</w>
in comes</w>
ic als</w>
human ity</w>
he ar</w>
graph ic</w>
gen g</w>
g n
foo t</w>
f a</w>
explor ed</w>
explo itation</w>
es el
e du
dim en
dest iny</w>
den mark</w>
demonstr ates</w>
daf a</w>
cris es</w>
compon ents</w>
chec king</w>
chang qing</w>
burea ucr
br un
bl ue
ber lin</w>
be at</w>
b ou
attemp ted</w>
at tered</w>
ap prove</w>
angel es</w>
ammuni tion</w>
accep table</w>
4 ,
1. 5</w>
win ter</w>
ure ment</w>
trans national</w>
tor al</w>
ti ght</w>
tem ple</w>
tel e
tar ge
ta ji
t ted</w>
swi m
su res</w>
some one</w>
roy o</w>
reag an</w>
ram p
r an</w>
pres sed</w>
pr e</w>
per forman
p ays</w>
o x
mor oc
mar king</w>
man power</w>
magaz ine</w>
m ass
ling shui</w>
lia ison</w>
jurisdic tion</w>
jun c
inno cent</w>
in jec
id able</w>
he at</w>
h itting</w>
ge org
foo tball</w>
fo st
exec ution</w>
excell ency</w>
ex ag
ep idem
ent our
dialec tical</w>
deplo y</w>
cover age</w>
conven ed</w>
cha os</w>
bar rels</w>
ati </w>
argu ment</w>
ar royo</w>
appe aled</w>
air lines</w>
ag ents</w>
after wards</w>
7 00</w>
5 1</w>
3 0th</w>
2. 5</w>
2 8th</w>
zim bab
wr iting</w>
under stand
under mine</w>
tw enty</w>
tric ks</w>
ter tiary</w>
swe eping</w>
subjec tive</w>
sh aring</w>
secretar ies</w>
rui huan</w>
respon d</w>
re viewing</w>
qingh ong</w>
pre viously</w>
practic ed</w>
performan ces</w>
p as
overwhel ming</w>
ong oing</w>
occurr ence</w>
occup ation</w>
ne pal</w>
n ur
mo z
lin ess</w>
kore as</w>
k ing
k ai</w>
hom es</w>
guarante eing</w>
func tional</w>
ex ha
es e
en sured</w>
em o
den ied</w>
d ish</w>
cub ic</w>
council or</w>
convin ced</w>
conve yed</w>
conf isc
commun ities</w>
champion ships</w>
c entering</w>
bus y</w>
blin dly</w>
author ization</w>
au tum
at er
appe ars</w>
ad justed</w>
ab undant</w>
ab dul
3 rd</w>
u sh
tur mo
treas ure</w>
thr ow</w>
sum med</w>
stu b
str y</w>
st ory</w>
shiel d</w>
sen tim
secon ds</w>
resist ing</w>
relig ions</w>
re member</w>
prov o
pragm atic</w>
porno graphy</w>
pill ar</w>
piec es</w>
peac efully</w>
pay ment</w>
painst aking</w>
p ack
on esel
onesel f</w>
mar ching</w>
lead s</w>
inter ested</w>
insepar able</w>
hosp it
head ing</w>
guar ds</w>
fab ric
f os
every body</w>
er adic
entour age</w>
em per
deliber ately</w>
deep ened</w>
cr ow
cr ack
contr acted</w>
com promise</w>
chi efs</w>
bel gi
bankrupt cy</w>
b orders</w>
b old</w>
autum n</w>
ash ing</w>
ar rest</w>
amend ment</w>
advant ageous</w>
acc us
8 6</w>
7 th</w>
18 th</w>
1 6th</w>
xi ong</w>
volunte ers</w>
u gh
tunis ia</w>
t ch</w>
surpris e</w>
sur ge</w>
supersti tion</w>
spec ul
si t</w>
sh im
sentim ents</w>
resign ation</w>
regul ate</w>
prom ising</w>
pres ti
pol ish</w>
po ol</w>
pled ge</w>
play ers</w>
pens able</w>
par tial</w>
p an</w>
norm ally</w>
n one</w>
mu sh
mu barak</w>
med al</w>
log istic</w>
log ic</w>
inv ig
insti g
improv ements</w>
id en
helicop ter</w>
har v
h a</w>
ger ed</w>
fin es</w>
en cro
em is
disc over</w>
den oun
deleg ate</w>
def end
deb ate</w>
cy cle</w>
cur b</w>
comm it</w>
collec t</w>
cher ish</w>
chec ked</w>
che e</w>
chair men</w>
belgi um</w>
b our
b ounds</w>
analy zed</w>
ag u
9 9</w>
3 9</w>
2 2nd</w>
y af</w>
w are</w>
univers ally</w>
uni fy</w>
ul timate</w>
ugu ese</w>
trig gered</w>
tre ati
treati es</w>
threat ening</w>
ta e</w>
substan tive</w>
sub sequ
sign al</w>
say yaf</w>
s ongs</w>
ru shed</w>
rec k
re tr
r a</w>
qi ang</w>
prefec ture</w>
port uguese</w>
perfec ting</w>
p age</w>
oppon ents</w>
nar co
muse um</w>
mus ic</w>
le aves</w>
inspec ted</w>
in j
iden tical</w>
he bei</w>
h es
go t
g an</w>
fun ding</w>
fa ke</w>
f f</w>
ess enti
end or
enc ing</w>
dras tic</w>
devo ting</w>
dec ad
critici ze</w>
coun t</w>
coordin ating</w>
conserv ancy</w>
connec ted</w>
commun ism</w>
collap se</w>
co h
cl ashes</w>
chem icals</w>
certi fic
brun ei</w>
bol dly</w>
blue print</w>
block ade</w>
b id
arm ing</w>
affor estation</w>
accor ds</w>
8 63</w>
4 th</w>
1 20</w>
worr ies</w>
wi </w>
wh ol
utili ze</w>
turmo il</w>
tre e</w>
total ed</w>
ten den
tenden cies</w>
ten ant</w>
supervis ing</w>
satur day</w>
ri ch
relax ed</w>
pro tests</w>
pan el</w>
over ing</w>
op poses</w>
om ed</w>
ol ing</w>
o g</w>
n ing
merg er</w>
loc ation</w>
lin ing</w>
li eu
k ill</w>
je wish</w>
inten ded</w>
instruc tion</w>
ideolog ies</w>
i a
h si
ga ther</w>
fran k
exc use</w>
emphasi zes</w>
eas ing</w>
discipl ines</w>
dis semin
dic t
dar k</w>
consul ate</w>
con go</w>
commis sion
colon ial</w>
ca th
c entered</w>
br a
b el</w>
appl ications</w>
aggres sive</w>
9 8</w>
4 ,000</w>
198 8</w>
198 0s</w>
0 9
z er</w>
y g
wor ship</w>
web sites</w>
vi en
val ent</w>
under water</w>
um p</w>
to b
tion ing</w>
ter ing</w>
succ ession</w>
st ayed</w>
sha ke</w>
sen ator</w>
ri val</w>
res cu
ramp ant</w>
qu ake</w>
pro of</w>
pharmaceu tical</w>
per mit</w>
pe ak</w>
o si
mo tives</w>
metho d
men tion</w>
mat ches</w>
marg in</w>
lieu tenant</w>
le tting</w>
l im</w>
jian xing</w>
jen in</w>
indis pensable</w>
in sp
identi fy</w>
gras ped</w>
geograph ical</w>
fron t
fea sible</w>
f ellow</w>
extra ordinary</w>
er ies</w>
enthusias tic</w>
end less</w>
emerg ence</w>
doc tors</w>
direc tions</w>
del ta</w>
decad ent</w>
crack down</w>
confron ted</w>
chos en</w>
cham ber</w>
celebr ate</w>
broadca sting</w>
boo sting</w>
bon d</w>
bl az
bi o
ber y</w>
bel ong</w>
are t
ak ia</w>
air ports</w>
air field</w>
aband on</w>
7 2</w>
youn g
y in</w>
west ern
w illi
w ake</w>
uni verse</w>
un iting</w>
tw ice</w>
trans forming</w>
struggl ing</w>
sp her
spher es</w>
sk ill</w>
sear ching</w>
reg istr
pu ts</w>
protec tive</w>
prop osi
pir ated</w>
per mitted</w>
peas ant</w>
ow er</w>
mort g
modern ized</w>
maneu ver</w>
langu ages</w>
lan zhou</w>
lag os</w>
lad en</w>
king dom</w>
innov ate</w>
i fication</w>
hur t</w>
hor iz
harb or</w>
h in
gla d</w>
g s</w>
g ao</w>
f lag</w>
extr a</w>
explor ations</w>
exam inations</w>
en ligh
dic ts</w>
de fec
cros sing</w>
confer ences</w>
cl ar
c ing</w>
au gh
attribu ted</w>
ad minister</w>
ac quired</w>
absor b</w>
z stan</w>
wor se</w>
veter an</w>
varie ties</w>
un willing</w>
tou ch</w>
tob acc
tobacc o</w>
ti tu
threat en</w>
stoc k
st e</w>
sec ure</w>
sch edu
schedu le</w>
rout es</w>
regul atory</w>
person ages</w>
p ful</w>
optim ize</w>
ob serving</w>
no tes</w>
n u
n ic
mod er
le v
law ful</w>
k i
infiltr ation</w>
indis crimin
ideolog ically</w>
id a</w>
ia ea</w>
house holds</w>
hon or
hear t
hang zhou</w>
h o</w>
gr ave</w>
genu ine</w>
g ir
f ers</w>
emphasi zing</w>
de vi
d og
cro ati
cr acked</w>
conve y</w>
conscienti ous</w>
circu its</w>
cham p
ch av
car d
buddh ist</w>
believ ers</w>
ar d
5 4</w>
24 th</w>
zhu hai</w>
young sters</w>
we b</w>
voic ed</w>
vangu ard</w>
v ation</w>
v an
total ing</w>
tang ible</w>
tan z
t wi
t ong</w>
sud anese</w>
stor e</w>
statis tical</w>
spo ts</w>
sou thwest</w>
situ ated</w>
sim pl
shar ply</w>
s ar
rec ur
re ar</w>
pre ach
play er</w>
notic ed</w>
mus lim</w>
meticul ous</w>
method ology</w>
ma p</w>
m emor
los ing</w>
liter ature</w>
less ly</w>
las er</w>
joh n</w>
inter land</w>
ins ist</w>
indic ate</w>
ignor ed</w>
ic tion</w>
hu bei</w>
hel pful</w>
harmon ious</w>
hard ships</w>
h interland</w>
guof ang</w>
fore front</w>
fl oo
fin ed</w>
fai th
exchang ing</w>
exce eding</w>
ex </w>
ess ly</w>
di um</w>
deser t</w>
d aq
cor ro
compl ementary</w>
ch ris
centr alized</w>
car ds</w>
ca o</w>
c ash</w>
c ai</w>
bri bes</w>
appreci ated</w>
applic able</w>
ail s</w>
ail ing</w>
ag n
adjust ing</w>
abdul lah</w>
5 7</w>
4 6</w>
197 8</w>
ul ar</w>
u sion</w>
telecommunic ation</w>
super power</w>
substan tially</w>
sign als</w>
shoc ked</w>
satis fy</w>
s le
restor e</w>
resor t</w>
resett lement</w>
regul ating</w>
quanti ties</w>
qing lin</w>
prom pt</w>
poll s</w>
pl ing</w>
p ou
p m</w>
ou ts</w>
on ary</w>
norm alization</w>
mod es</w>
me at</w>
ma zu</w>
loo ks</w>
kn ess</w>
is tically</w>
impac ts</w>
grati tude</w>
gran ting</w>
gl o
fulfill ment</w>
fr ag
emper or</w>
embr ace</w>
dispat ch</w>
dis gu
di vis
di ment</w>
def ine</w>
cost a</w>
conveni ent</w>
consolid ation</w>
confid ential</w>
compati ble</w>
co de</w>
charac ters</w>
cha e
c amer
be arance</w>
ad or</w>
ab sur
7 8</w>
7 7</w>
6 ,
5 2</w>
y a
vien na</w>
val ley</w>
ur ance</w>
un fair</w>
um i</w>
tre ating</w>
trans mitted</w>
tr am
tour na
tourna ment</w>
t ful</w>
su its</w>
sc attered</w>
ris en</w>
regul ar
rec alled</w>
re tail</w>
r uan</w>
pun ishments</w>
pro tr
prin ting</w>
presid ency</w>
pr ol
pol it
polit bur
politbur o</w>
pir acy</w>
pi pel
patter ns</w>
organ ic</w>
on a</w>
off shore</w>
mush arr
musharr af</w>
mis sed</w>
li ved</w>
l has
lhas a</w>
l acking</w>
kyrgy zstan</w>
k y</w>
k el</w>
ji a
j </w>
inv ite</w>
intr uded</w>
inspec tions</w>
ho stages</w>
hel ps</w>
har der</w>
g ian</w>
ful ness</w>
fore stry</w>
for bearance</w>
fer r
f it</w>
expe d
eur o</w>
epidem ic</w>
encro ach
emplo ying</w>
el ing</w>
egyp tian</w>
educ ating</w>
drill s</w>
del hi</w>
d augh
continu al</w>
commission er</w>
cl asses</w>
cl am
cath ol
categ ory</w>
cap tured</w>
c ited</w>
bon n</w>
bon ded</w>
bomb ed</w>
bl ow</w>
b in
ati zation</w>
associ ated</w>
ar chae
appreci ates</w>
an xi
alban ia</w>
al a</w>
accumul ation</w>
accompl ishing</w>
5 6</w>
27 th</w>
200 4</w>
198 9</w>
xue zhi</w>
weak ened</w>
war heads</w>
w ished</w>
w aged</w>
venezuel an</w>
uni fying</w>
tru th
th western</w>
tem por
succes sive</w>
stric ken</w>
str ides</w>
str ang
stabil izing</w>
stabil ize</w>
st on</w>
sh are
sem i</w>
s om
rong ji</w>
republ icans</w>
repor tedly</w>
rel ax</w>
registr ation</w>
refer ring</w>
re ply</w>
r os
prohib ited</w>
poll ut
pen alty</w>
passeng er</w>
oce ans</w>
objec tively</w>
n ings</w>
mov ements</w>
memor an
med als</w>
main stay</w>
leng th</w>
ke ts</w>
ke en</w>
k ir
ish i
ig n</w>
if ying</w>
hom eland</w>
her z
hard ware</w>
happ en</w>
h oll
h il
guar ding</w>
guang sheng</w>
g ym
fur </w>
fu zhou</w>
front line</w>
fre ely</w>
flo ating</w>
exer ted</w>
exag ger
eur os</w>
du al</w>
dang ers</w>
da w
d ao</w>
cust om
countr y
con vers
con taining</w>
con tain</w>
con no
col or</w>
circ le</w>
br ave</w>
bid ding</w>
ben evol
attemp ting</w>
arri ve</w>
answ ering</w>
all ing</w>
ali ve</w>
ad mit</w>
? ?</w>
5 -
3 0,000</w>
w aging</w>
vo y
vis m</w>
ton ight</w>
til ity</w>
sympath y</w>
swim ming</w>
sub scri
solem nly</w>
si veness</w>
sh ut
ser i
rig or
rejec ted</w>
real m</w>
read ers</w>
q </w>
purch ased</w>
proc urement</w>
prin ted</w>
pres sion</w>
pre si
pr ide</w>
oo dy</w>
ob served</w>
nation als</w>
narco tics</w>
n ish</w>
memoran dum</w>
man i
lif ted</w>
lat via</w>
l ob
jour nal</w>
influ ential</w>
influ ences</w>
im posing</w>
im ages</w>
high ways</w>
hai kou</w>
gn p</w>
g reg
fr ig
fl our
farm land</w>
fallac ies</w>
fac tion</w>
eth ical</w>
enforc ing</w>
em an</w>
el ed</w>
edit or</w>
dimen sional</w>
dedic ated</w>
d or
cr ops</w>
cov ers</w>
consolid ated</w>
consci ous</w>
competi tors</w>
comp ul
commit ting</w>
ch ain</w>
c iting</w>
c auti
bum ped</w>
bo eing</w>
b ought</w>
b ao
avo iding</w>
atta ching</w>
ass as
assas sin
ant ou</w>
ad vice</w>
absur d</w>
a erial</w>
wal k</w>
up s</w>
un it
ue her</w>
tur bul
ten d</w>
te en</w>
suppl ementary</w>
stor ms</w>
st aying</w>
sh antou</w>
scen es</w>
s ung</w>
refer en
recti fying</w>
recti fy</w>
protr acted</w>
prom ises</w>
pro te
presti ge</w>
pr ueher</w>
pr ize</w>
poss esses</w>
plo t</w>
ph r
per tin
on y</w>
oblig ation</w>
nor thwest</w>
neglec t</w>
moroc co</w>
mir ac
meteor ological</w>
mechan ized</w>
manif ested</w>
maneu vers</w>
mac ed
low ered</w>
lo ading</w>
lic ense</w>
lec tures</w>
lan ka</w>
israel is</w>
insp ired</w>
husb and
husband ry</w>
her self</w>
her itage</w>
hegemon ist</w>
heart felt</w>
ha ps</w>
guo qin</w>
gr ant</w>
fast est</w>
fall en</w>
fac tions</w>
f eng
explo sions</w>
ex emp
estim ate</w>
equi valent</w>
emer ge</w>
embar go</w>
el ine</w>
edi tion</w>
econom ist</w>
e ar</w>
deli very</w>
conveni ence</w>
cont est</w>
consider ably</w>
conserv ative</w>
ci g
chav ez</w>
carri ers</w>
canc er</w>
cali for
c ease</w>
bud ge
bro ade
broade st</w>
brig ades</w>
barri er</w>
barr acks</w>
ap ping</w>
al arm</w>
6 4</w>
4 4</w>
198 6</w>
14 .
y ue</w>
wr ite</w>
w ood</w>
v ement</w>
urugu ayan</w>
urg es</w>
u z
trig ger</w>
ton n
te en
t ness</w>
t ance</w>
syri an</w>
stric ts</w>
star ts</w>
st am
solid arity</w>
slog an</w>
sh anxi</w>
sh ak
s ory</w>
refr ain</w>
reflec ting</w>
referen dum</w>
re ci
r on</w>
practic ally</w>
pr inc
persist ent</w>
passeng ers</w>
of t</w>
obe y</w>
ob taining</w>
nom ination</w>
lan tic</w>
ken ya</w>
k g</w>
je op
j u</w>
identi ty</w>
i op
head way</w>
got ten</w>
fost ering</w>
foc al</w>
ex cl
er o
di stricts</w>
depar ture</w>
deli ver</w>
del ayed</w>
contr ast</w>
constitu tional</w>
conserv ation</w>
con d
comm ands</w>
com pris
cli que</w>
cig aret
ch aired</w>
car ter</w>
cap ture</w>
campaig ns</w>
bl ows</w>
bl ast</w>
behavi ors</w>
b ad
author itative</w>
at lantic</w>
assist ing</w>
arrog ant</w>
arrang e</w>
ar ising</w>
appli ance</w>
9 -
15 .
z ao</w>
vic es</w>
valu ed</w>
unil ater
tr ials</w>
ti vism</w>
terr or</w>
ter ior</w>
tempor arily</w>
so ber</w>
smo king</w>
ship building</w>
sh op</w>
secre ts</w>
revis e</w>
resum ed</w>
renov ation</w>
reli ance</w>
readjust ing</w>
pul l</w>
proce eded</w>
poten ti
par all
mis s</w>
me ant</w>
li v
labor atory</w>
inter fering</w>
inter action</w>
indic ating</w>
in corpor
hu mil
haw k</w>
hand ic
h at
grati fying</w>
found er</w>
fe i</w>
exc ep
emplo y</w>
embo diment</w>
elec t</w>
dr ag
diversi fication</w>
distingu ish</w>
di an</w>
destruc tive</w>
dar fur</w>
coun tless</w>
correspon dent</w>
compl ement</w>
commemor ative</w>
cl assi
ci p
chang chun</w>
califor nia</w>
bl oody</w>
ber g</w>
bang zao</w>
b un
b ai</w>
b ai
b acking</w>
ass em
arri ves</w>
appe als</w>
anti aircraft</w>
adver ti
adop tion</w>
accor dingly</w>
a be
8 2</w>
x on</w>
weak en</w>
w er</w>
vir tual</w>
trans formed</w>
te ach</w>
taji kistan</w>
syndic ate</w>
suf fer
sub </w>
su spic
st ern</w>
spec ified</w>
so e</w>
si ves</w>
sh aking</w>
separ ating</w>
scre en</w>
sacrific e</w>
s oph
re vi
rad ical</w>
r ence</w>
prol onged</w>
photo s</w>
persist ed</w>
op ec</w>
o on</w>
necess arily</w>
ne tic</w>
nan sha</w>
nan hai</w>
multi polarization</w>
mo tor</w>
mag ic</w>
ko h
jeop ardi
j an</w>
it em</w>
ishi hara</w>
industr ial
inde fin
import antly</w>
humil i
ho tel
ho stage</w>
gu il
georg ia</w>
fru it</w>
foo ting</w>
fl or
fail ing</w>
f y
f at
f ame</w>
explan ations</w>
ex porting</w>
estim ates</w>
en rich</w>
employe e</w>
dist ant</w>
dis regard</w>
dic t</w>
defl ation</w>
de tained</w>
de sc
de gener
de als</w>
conven tions</w>
concentr ating</w>
ch anc
chanc ell
broad en</w>
bomb ers</w>
bl ame</w>
as ser
ar chi
anti cip
ang ola</w>
ali enable</w>
ad dicts</w>
8 8</w>
6 2</w>
6 ,000</w>
3 00,000</w>
yong huai</w>
yong bo</w>
under go</w>
un authorized</w>
teach er</w>
t emp
stri p</w>
str at
st ern
st em</w>
slov akia</w>
sh eng
rom anian</w>
righ te
rel ation</w>
re vision</w>
rang ing</w>
r w
r ounds</w>
qi u</w>
public ize</w>
prov es</w>
prop ose</w>
poin ting</w>
perio ds</w>
perfec ted</w>
per su
per haps</w>
p n
p ast
op pos
od d</w>
mur der</w>
moz ambi
mozambi que</w>
moun t</w>
mo ham
mar x</w>
mani pul
loc ality</w>
leg is
legis lat
la y
kun ming</w>
jour ney</w>
ji u
isol ated</w>
invol vement</w>
identi fied</w>
hotel s</w>
hon ored</w>
g am
for th
fe et</w>
expe di
ex pose</w>
eth iop
es y</w>
enti ve</w>
embo dies</w>
educ ated</w>
e asi
di ver
depend ence</w>
defic its</w>
de vices</w>
da vid</w>
cr op</w>
cour age
counter part</w>
cooper ating</w>
construc t</w>
con tained</w>
con currently</w>
competi tions</w>
col or
clim ate</w>
car go</w>
bre eding</w>
beg ins</w>
battle fields</w>
ambassad ors</w>
9 6</w>
9 4</w>
8 4</w>
197 2</w>
zimbab we</w>
y l
x es</w>
win ner</w>
week ly</w>
ver dict</w>
uz be
understand ings</w>
under taken</w>
ug anda</w>
travel ing</w>
tran qu
trag edy</w>
toler ate</w>
to ols</w>
ti m</w>
ti ll</w>
ter y</w>
sym bol
sub sist
stre am
so es</w>
so ber
sober ly</w>
shif ted</w>
sh u</w>
s word</w>
rene w
rein forced</w>
ref using</w>
ref er</w>
re mov
re lies</w>
r aids</w>
purch ases</w>
pu rely</w>
post ure</w>
per u</w>
pass age</w>
ov ina</w>
out dated</w>
on er</w>
machin es</w>
m ou
loy al</w>
k it
k ad
ji az
inter ven
inher ent</w>
in er
in alienable</w>
hon da</w>
herz eg
herzeg ovina</w>
gu ilin</w>
gr ound
glo be</w>
flor ida</w>
fin nish</w>
f ear
expres s
expec ts</w>
er ec
en counter</w>
doc tor</w>
dis car
determin es</w>
defin ite</w>
de fici
dat ab
critici zing</w>
courage ously</w>
counter parts</w>
cop y
consid ers</w>
consequ ently</w>
compul sory</w>
collec tivism</w>
chin as</w>
chancell or</w>
ch u
c air
autom atic</w>
associ ations</w>
alter n
all s</w>
admir ation</w>
ac tors</w>
9 7</w>
writ ers</w>
win s</w>
war nings</w>
w aver
ur ban
ul terior</w>
tur n
transpar ency</w>
town ships</w>
ti fication</w>
suspec t</w>
subsist ence</w>
subsi di
sub head</w>
stre ets</w>
spar e</w>
sligh test</w>
sid ed</w>
seri ousness</w>
scor es</w>
sabot age</w>
s in</w>
ru sh</w>
ren owned</w>
refer red</w>
rec all</w>
re acti
r ome</w>
pu </w>
por tion</w>
perfec tion</w>
par ach
p o</w>
nom in
neighb or</w>
nam i
min eral</w>
militar ism</w>
mil est
mil es</w>
mi xed</w>
mem orial</w>
manufac ture</w>
mad rid</w>
ko iz
koiz umi</w>
j ong</w>
inv inci
interpre tation</w>
install ations</w>
identi fication</w>
i ii</w>
hibi tions</w>
green span</w>
gr im</w>
fin als</w>
fe wer</w>
fall s</w>
f old</w>
f bi</w>
exten sion</w>
explo it</w>
explic it</w>
evol ution</w>
ent ment</w>
embo dy</w>
em be
easi er</w>
e ze</w>
e ties</w>
de s
d p
consist s</w>
confu sion</w>
con tain
con qu
comp ly</w>
comm on
com </w>
clu b</w>
che chen</w>
c oc
c is</w>
be an</w>
awar ds</w>
at taining</w>
ass ess</w>
addres sed</w>
ad verse</w>
8 ,
7 3</w>
198 5</w>
y ing
x ing
wid ening</w>
we iz
vo ted</w>
vill agers</w>
ve to</w>
v ana</w>
ur ies</w>
un employed</w>
un condi
u pr
tr </w>
tor ious</w>
ti e
te a</w>
susp ended</w>
sug ar</w>
su pre
supre mac
supremac y</w>
stern ly</w>
sp ur
so oner</w>
sil ver</w>
sh ock</w>
sh ing</w>
separ atism</w>
scand al</w>
s na
ro t
ri ding</w>
regim ents</w>
recur rence</w>
prosec ution</w>
procurat or
prison ment</w>
pr ague</w>
poss essing</w>
polic emen</w>
pl ain</w>
phys ics</w>
over coming</w>
o t
o ec
nig er</w>
ni xon</w>
mortg age</w>
min i</w>
mi x</w>
malay sian</w>
lib eral</w>
li ed</w>
li br
len ec
lec ture</w>
j uni
invinci ble</w>
instr uments</w>
im prisonment</w>
ill u
huai cheng</w>
fron ts</w>
forth coming</w>
flexi bility</w>
fl ed</w>
fin ish</w>
f an
experi ment</w>
en forced</w>
elec toral</w>
dram atic</w>
destro yer</w>
de generation</w>
dam aging</w>
d an</w>
cou ple</w>
copy right</w>
confron tations</w>
co ol</w>
co ach</w>
cam ps</w>
buddh ism</w>
bu </w>
bott lenec
ban ning</w>
bal tic</w>
approach ing</w>
ant ag
9 00</w>
8 9</w>
8 ,000</w>
6 8</w>
200 ,000</w>
13 .
zhong nanhai</w>
z huang</w>
ye e</w>
wi den</w>
wh e
vis ible</w>
v aj
ur i</w>
un fortun
trans l
tonn es</w>
ti me
thes is</w>
ten ure</w>
sy d
sur ging</w>
standardi zing</w>
sp ur</w>
run s</w>
reti re
retali ation</w>
remov al</w>
reflec tion</w>
reason ing</w>
re l</w>
re employment</w>
quick en</w>
qu </w>
prov ision</w>
proletar ian</w>
procurator ates</w>
popul arization</w>
plo ts</w>
pertin ent</w>
out break</w>
oec d</w>
obstac le</w>
now ad
nowad ays</w>
notic eable</w>
mor s</w>
mobil izing</w>
min ed</w>
milest one</w>
mat su</w>
lo d
liber alization</w>
ir rational</w>
inv iting</w>
inter v
in hab
ignor ance</w>
heigh ten</w>
go h</w>
gen e
fi res</w>
favor ed</w>
facilit ating</w>
environ ments</w>
enri ched</w>
eng land</w>
en ia</w>
east ward</w>
divis ions</w>
disrup t</w>
disci ples</w>
dis pos
dig iti
dec l
de vice</w>
confron ting</w>
confisc ated</w>
comp iled</w>
celebr ations</w>
cathol ic</w>
cal am
cair o</w>
c ure</w>
approv es</w>
appli ances</w>
al es</w>
adequ acy</w>
accompl ishment</w>
ac knowledge</w>
5 ,
4 9</w>
200 8</w>
0 7</w>
z am
y in
where ab
whereab outs</w>
weak ness</w>
we t
war ship</w>
wan ton</w>
vis ual</w>
vic tim</w>
veget ables</w>
u ba</w>
trou bles</w>
tr a</w>
tol l</w>
to x
ter ly</w>
sym pt
sym b
standardi zation</w>
split tism</w>
spl en
splen did</w>
slow down</w>
sk i</w>
simil arly</w>
si es</w>
sex </w>
secon dly</w>
sec t</w>
rev ital
reser vo
real istically</w>
reacti onary</w>
re version</w>
re tain</w>
rati fied</w>
r end
q un</w>
proper ties</w>
promo tes</w>
produc ers</w>
prison er</w>
pra ise</w>
peri ph
ow ners</w>
ov a</w>
olog ists</w>
no body</w>
neighbor liness</w>
mor ale</w>
merg ed</w>
mass ac
marke dly</w>
maced onia</w>
m igr
m igh
m be
ld p</w>
l ai</w>
l acks</w>
j inan</w>
it ted</w>
infec ted</w>
inaug uration</w>
in cur
in appropriate</w>
imp over
i ent</w>
hsi ung</w>
hos tility</w>
hol ders</w>
heav ily</w>
he in
happ ens</w>
h ind
h ide</w>
fy p</w>
further ing</w>
form ity</w>
exist ed</w>
exec u
ep s</w>
entr ance</w>
eng ine</w>
emancip ation</w>
e ge</w>
e ch
e ably</w>
dow ns</w>
direc ting</w>
di e
dec iding</w>
de tention</w>
daw n</w>
conv inc
contin ental</w>
con spir
con front</w>
commis sions</w>
colom bia</w>
cohe sion</w>
chic ago</w>
champ ion</w>
ch u</w>
celebr ation</w>
c ells</w>
bu ying</w>
broad er</w>
bit ter</w>
benevol ence</w>
believ ing</w>
bel ongs</w>
bas ing</w>
b eration</w>
auth or</w>
au to</w>
au m</w>
ass urance</w>
answ ers</w>
ack ers</w>
ab ad</w>
9. 11</w>
6 6</w>
17 th</w>
1, 500</w>
1 2.
1 2-
yg en</w>
voy age</w>
vi an</w>
ver ified</w>
vaj pa
vajpa yee</w>
under mined</w>
ul sion</w>
ud es</w>
travel ed</w>
tor pe
ti g
ti e</w>
the ast
teen agers</w>
targe ted</w>
syd ney</w>
sur passed</w>
se emed</w>
sail ing</w>
s on
s ic
roy al</w>
rol l</w>
ro ad
rigor ous</w>
reli ev
rel ay</w>
rejuven ating</w>
recru it</w>
re verse</w>
re strict</w>
re pl
re education</w>
ration ally</w>
princ ess</w>
prefec tural</w>
pr ud
pow der</w>
pou l
poul try</w>
potenti als</w>
post pon
poss essed</w>
pn tr</w>
pipel ine</w>
pil gr
persist ing</w>
penetr ation</w>
pack age</w>
p ure</w>
ox ygen</w>
oc </w>
notic eably</w>
no table</w>
ne pal
mov ie</w>
migh ty</w>
merch ants</w>
mer its</w>
mem ory</w>
medi ation</w>
mechan ical</w>
mbe ki</w>
mar ri
manufac tured</w>
lux emb
lar g
k ur
j et</w>
ir anian</w>
interc ept</w>
inspec ting</w>
inqu ir
infring ement</w>
ind ul
ill ness</w>
il i</w>
ic ian</w>
hospit als</w>
hol iday</w>
ho sting</w>
her esy</w>
h ke</w>
h ec
guil ty</w>
gir l</w>
er able</w>
dis satisfaction</w>
differ enti
di verse</w>
depart mental</w>
deli beration</w>
decre es</w>
d ow</w>
d in
d eng
construc ted</w>
congratul ated</w>
compos ite</w>
comm enting</w>
cauti ous</w>
c e
bu t
br own</w>
bor r
boo sted</w>
bl ock</w>
bar bar
anc est
analy zing</w>
alloc ated</w>
all ows</w>
ad vers
8 1</w>
5 9</w>
2 9th</w>
198 7</w>
198 2</w>
1 10</w>
week end</w>
we alth
vi vid</w>
un expected</w>
ti fy</w>
te ars</w>
survi ve</w>
sugges tion</w>
subsequ ently</w>
st al
spir its</w>
shir o</w>
shi jiaz
shijiaz huang</w>
shad ow</w>
secre tly</w>
se at</w>
scen ari
safeguar ded</w>
sad r</w>
roo ted</w>
restr ained</w>
requ ests</w>
rec y</w>
re vers
rail ways</w>
quo ta</w>
parall el</w>
par aly
p ope</w>
os ing</w>
or b
oppos ite</w>
op tion</w>
off ers</w>
occup ying</w>
ob s
nan chang</w>
n t</w>
met all
ment ally</w>
me ga
k ans</w>
ji e
j up
j os
it ations</w>
islam abad</w>
is co</w>
influ enced</w>
indefin itely</w>
i tion</w>
hung arian</w>
gr am</w>
genu in
fea sibility</w>
expec tation</w>
er o</w>
earth quake</w>
dri ven</w>
determin ing</w>
decl are</w>
day a</w>
curr encies</w>
counter fe
convinc ing</w>
concentr ation</w>
con tains</w>
colom bian</w>
coll abor
chr ist
bir d</w>
be tr
bal kans</w>
b on</w>
avo ided</w>
au l</w>
ast ing</w>
al d</w>
af firm
8 7</w>
1 60</w>
yo shiro</w>
y ev</w>
w ati</w>
urban ization</w>
uc tu
thr own</w>
thir ds</w>
t res
summ ary</w>
strong est</w>
sti r
spon s
slow ly</w>
should ers</w>
sh ine</w>
sex ual</w>
sec recy</w>
rup tion</w>
ru mors</w>
regul arly</w>
re m
rac ial</w>
qui e
pris ons</w>
pen sion</w>
pain ting</w>
our g</w>
no bel</w>
ne ill</w>
n ad
luxemb ourg</w>
k new</w>
k ao
kao hsiung</w>
jur ies</w>
jum p</w>
inten tions</w>
intellec tu
in juries</w>
in complete</w>
impover ished</w>
immigr ation</w>
imm ense</w>
i vo
hi red</w>
handic apped</w>
hand ful</w>
gl ory</w>
ga o
g ate</w>
g 8</w>
franc isco</w>
form idable</w>
forec asts</w>
floo ding</w>
fl uctu
fin ds</w>
f ans</w>
exerc ised</w>
est onia</w>
energ ies</w>
enabl es</w>
den y</w>
critic isms</w>
congres sional</w>
comfor t</w>
com ings</w>
clear ing</w>
chr on
cal m</w>
brid ges</w>
br oo
br ands</w>
be ings</w>
arbitr ary</w>
ar ise</w>
analy ses</w>
ag ues</w>
affec ts</w>
acci d
ac u
: 30</w>
6 7</w>
3. 5</w>
3 0
2 50</w>
1- 2</w>
x un</w>
x ious</w>
voc ational</w>
vis itor</w>
viol ates</w>
ver ification</w>
um no</w>
trans actions</w>
tion ed</w>
time table</w>
tigh tly</w>
tie ying</w>
theast ern</w>
ten et</w>
techni que</w>
sympt oms</w>
suppor ters</w>
st opping</w>
st ating</w>
simultane ous</w>
short comings</w>
scand als</w>
s y</w>
s ounded</w>
roll ing</w>
retali atory</w>
reser ving</w>
relax ation</w>
ref uses</w>
re ward</w>
quie tly</w>
provoc ation</w>
prin ce</w>
pri orities</w>
prev ented</w>
pres sures</w>
pre dec
predec ess
po or
person alities</w>
p it
optim ization</w>
oper ated</w>
objec t</w>
o dy</w>
no ble</w>
ne ts</w>
nas daq
nasdaq </w>
mess ages</w>
man ned</w>
loc k</w>
li abilities</w>
la os</w>
join s</w>
j acqu
jacqu es</w>
is s</w>
instruc ted</w>
instr ument</w>
imm unity</w>
ignor e</w>
ib bean</w>
honest y</w>
h ood
genuin ely</w>
ge ological</w>
g as
func tion
frequ ency</w>
fortun e</w>
forem entioned</w>
forc ing</w>
fol k</w>
foc uses</w>
f ed</w>
exp elled</w>
equ ally</w>
ent ations</w>
en circl
embe zz
el essly</w>
el d
eag er</w>
dram atically</w>
dr ought</w>
dp p</w>
dor mit
domes tically</w>
distor ted</w>
dis missed</w>
dis integration</w>
decei ve</w>
deal ers</w>
de mobilized</w>
d ust</w>
cr i</w>
conno tation</w>
common wealth</w>
comm ent
colle agues</w>
coh en</w>
cent uries</w>
car ibbean</w>
bound ary</w>
bomb ings</w>
bl ack
b age</w>
av en
associ ate</w>
as sign
appoin ting</w>
and er</w>
an tic
an e</w>
alleg ed</w>
al izing</w>
ak a</w>
adher es</w>
aband oned</w>
a forementioned</w>
7 ,
197 0s</w>
1. 3</w>
zer o</w>
z ou</w>
yong kang</w>
yiel ded</w>
wat ched</w>
vers ity</w>
un certain</w>
umb rel
um ph
twi sts</w>
tri umph
transi tional</w>
tr ain
ti ed</w>
them es</w>
t elling</w>
t as</w>
t am
t ability</w>
swit ch</w>
squ arely</w>
sor t</w>
see ds</w>
schol ar</w>
schem es</w>
saf ely</w>
reve al</w>
rep airs</w>
reli ed</w>
quo tas</w>
qing dao</w>
pun ishing</w>
proposi tion</w>
priv il
priv ately</w>
presi dium</w>
prelim in
pl ung
pho to</w>
oun ce</w>
os is</w>
or al</w>
